{
  "version": "1.0",
  "truncation": null,
  "padding": null,
  "added_tokens": [
    {
      "id": 0,
      "content": "[PAD]",
      "single_word": false,
      "lstrip": false,
      "rstrip": false,
      "normalized": false,
      "special": true
    },
    {
      "id": 1,
      "content": "[UNK]",
      "single_word": false,
      "lstrip": false,
      "rstrip": false,
      "normalized": false,
      "special": true
    },
    {
      "id": 2,
      "content": "[CLS]",
      "single_word": false,
      "lstrip": false,
      "rstrip": false,
      "normalized": false,
      "special": true
    },
    {
      "id": 3,
      "content": "[SEP]",
      "single_word": false,
      "lstrip": false,
      "rstrip": false,
      "normalized": false,
      "special": true
    },
    {
      "id": 4,
      "content": "[MASK]",
      "single_word": false,
      "lstrip": false,
      "rstrip": false,
      "normalized": false,
      "special": true
    }
  ],
  "normalizer": {
    "type": "Sequence",
    "normalizers": [
      {
        "type": "NFD"
      },
      {
        "type": "Lowercase"
      },
      {
        "type": "StripAccents"
      }
    ]
  },
  "pre_tokenizer": {
    "type": "Whitespace"
  },
  "post_processor": {
    "type": "BertProcessing",
    "sep": [
      "[SEP]",
      3
    ],
    "cls": [
      "[CLS]",
      2
    ]
  },
  "decoder": null,
  "model": {
    "type": "BPE",
    "dropout": null,
    "unk_token": null,
    "continuing_subword_prefix": null,
    "end_of_word_suffix": null,
    "fuse_unk": false,
    "byte_fallback": false,
    "ignore_merges": false,
    "vocab": {
      "[PAD]": 0,
      "[UNK]": 1,
      "[CLS]": 2,
      "[SEP]": 3,
      "[MASK]": 4,
      "!": 5,
      "\"": 6,
      "#": 7,
      "$": 8,
      "%": 9,
      "&": 10,
      "'": 11,
      "(": 12,
      ")": 13,
      "*": 14,
      "+": 15,
      ",": 16,
      "-": 17,
      ".": 18,
      "/": 19,
      "0": 20,
      "1": 21,
      "2": 22,
      "3": 23,
      "4": 24,
      "5": 25,
      "6": 26,
      "7": 27,
      "8": 28,
      "9": 29,
      ":": 30,
      ";": 31,
      "<": 32,
      "=": 33,
      ">": 34,
      "?": 35,
      "@": 36,
      "[": 37,
      "\\": 38,
      "]": 39,
      "^": 40,
      "_": 41,
      "`": 42,
      "a": 43,
      "b": 44,
      "c": 45,
      "d": 46,
      "e": 47,
      "f": 48,
      "g": 49,
      "h": 50,
      "i": 51,
      "j": 52,
      "k": 53,
      "l": 54,
      "m": 55,
      "n": 56,
      "o": 57,
      "p": 58,
      "q": 59,
      "r": 60,
      "s": 61,
      "t": 62,
      "u": 63,
      "v": 64,
      "w": 65,
      "x": 66,
      "y": 67,
      "z": 68,
      "{": 69,
      "|": 70,
      "}": 71,
      "~": 72,
      "": 73,
      "": 74,
      "": 75,
      "": 76,
      "": 77,
      "": 78,
      "": 79,
      "": 80,
      "¡": 81,
      "¢": 82,
      "£": 83,
      "¤": 84,
      "¥": 85,
      "¦": 86,
      "§": 87,
      "¨": 88,
      "©": 89,
      "ª": 90,
      "«": 91,
      "¬": 92,
      "­": 93,
      "®": 94,
      "¯": 95,
      "°": 96,
      "±": 97,
      "²": 98,
      "³": 99,
      "´": 100,
      "µ": 101,
      "¶": 102,
      "·": 103,
      "¸": 104,
      "¹": 105,
      "º": 106,
      "»": 107,
      "¼": 108,
      "½": 109,
      "¾": 110,
      "¿": 111,
      "×": 112,
      "ß": 113,
      "æ": 114,
      "ð": 115,
      "÷": 116,
      "ø": 117,
      "þ": 118,
      "đ": 119,
      "ħ": 120,
      "ı": 121,
      "ł": 122,
      "ŋ": 123,
      "œ": 124,
      "ƒ": 125,
      "ƿ": 126,
      "ǁ": 127,
      "ȝ": 128,
      "ɐ": 129,
      "ɑ": 130,
      "ɒ": 131,
      "ɔ": 132,
      "ɕ": 133,
      "ɖ": 134,
      "ɗ": 135,
      "ə": 136,
      "ɚ": 137,
      "ɛ": 138,
      "ɜ": 139,
      "ɡ": 140,
      "ɣ": 141,
      "ɤ": 142,
      "ɦ": 143,
      "ɨ": 144,
      "ɪ": 145,
      "ɫ": 146,
      "ɬ": 147,
      "ɯ": 148,
      "ɰ": 149,
      "ɱ": 150,
      "ɲ": 151,
      "ɳ": 152,
      "ɴ": 153,
      "ɵ": 154,
      "ɸ": 155,
      "ɹ": 156,
      "ɻ": 157,
      "ɽ": 158,
      "ɾ": 159,
      "ʀ": 160,
      "ʁ": 161,
      "ʂ": 162,
      "ʃ": 163,
      "ʈ": 164,
      "ʉ": 165,
      "ʊ": 166,
      "ʋ": 167,
      "ʌ": 168,
      "ʎ": 169,
      "ʏ": 170,
      "ʐ": 171,
      "ʑ": 172,
      "ʒ": 173,
      "ʔ": 174,
      "ʕ": 175,
      "ʙ": 176,
      "ʝ": 177,
      "ʤ": 178,
      "ʧ": 179,
      "ʰ": 180,
      "ʱ": 181,
      "ʲ": 182,
      "ʷ": 183,
      "ʹ": 184,
      "ʺ": 185,
      "ʻ": 186,
      "ʼ": 187,
      "ʽ": 188,
      "ʾ": 189,
      "ʿ": 190,
      "ˀ": 191,
      "ˁ": 192,
      "ˆ": 193,
      "ˈ": 194,
      "ˌ": 195,
      "ː": 196,
      "ˑ": 197,
      "˘": 198,
      "˚": 199,
      "˜": 200,
      "ˠ": 201,
      "ˤ": 202,
      "˥": 203,
      "˧": 204,
      "˩": 205,
      "΄": 206,
      "α": 207,
      "β": 208,
      "γ": 209,
      "δ": 210,
      "ε": 211,
      "ζ": 212,
      "η": 213,
      "θ": 214,
      "ι": 215,
      "κ": 216,
      "λ": 217,
      "μ": 218,
      "ν": 219,
      "ξ": 220,
      "ο": 221,
      "π": 222,
      "ρ": 223,
      "ς": 224,
      "σ": 225,
      "τ": 226,
      "υ": 227,
      "φ": 228,
      "χ": 229,
      "ψ": 230,
      "ω": 231,
      "ϑ": 232,
      "ϕ": 233,
      "ϫ": 234,
      "ϸ": 235,
      "а": 236,
      "б": 237,
      "в": 238,
      "г": 239,
      "д": 240,
      "е": 241,
      "ж": 242,
      "з": 243,
      "и": 244,
      "к": 245,
      "л": 246,
      "м": 247,
      "н": 248,
      "о": 249,
      "п": 250,
      "р": 251,
      "с": 252,
      "т": 253,
      "у": 254,
      "ф": 255,
      "х": 256,
      "ц": 257,
      "ч": 258,
      "ш": 259,
      "щ": 260,
      "ъ": 261,
      "ы": 262,
      "ь": 263,
      "э": 264,
      "ю": 265,
      "я": 266,
      "є": 267,
      "і": 268,
      "ј": 269,
      "љ": 270,
      "ћ": 271,
      "џ": 272,
      "ѣ": 273,
      "ѥ": 274,
      "ґ": 275,
      "ғ": 276,
      "җ": 277,
      "ҙ": 278,
      "қ": 279,
      "ң": 280,
      "ү": 281,
      "ұ": 282,
      "ҳ": 283,
      "ҷ": 284,
      "һ": 285,
      "ӏ": 286,
      "ә": 287,
      "ө": 288,
      "ա": 289,
      "բ": 290,
      "գ": 291,
      "դ": 292,
      "ե": 293,
      "զ": 294,
      "է": 295,
      "ը": 296,
      "թ": 297,
      "ի": 298,
      "լ": 299,
      "խ": 300,
      "ծ": 301,
      "կ": 302,
      "հ": 303,
      "ձ": 304,
      "ղ": 305,
      "մ": 306,
      "յ": 307,
      "ն": 308,
      "շ": 309,
      "ո": 310,
      "չ": 311,
      "պ": 312,
      "ջ": 313,
      "ռ": 314,
      "ս": 315,
      "վ": 316,
      "տ": 317,
      "ր": 318,
      "ց": 319,
      "ւ": 320,
      "փ": 321,
      "ք": 322,
      "և": 323,
      "֏": 324,
      "־": 325,
      "א": 326,
      "ב": 327,
      "ג": 328,
      "ד": 329,
      "ה": 330,
      "ו": 331,
      "ז": 332,
      "ח": 333,
      "ט": 334,
      "י": 335,
      "ך": 336,
      "כ": 337,
      "ל": 338,
      "ם": 339,
      "מ": 340,
      "ן": 341,
      "נ": 342,
      "ס": 343,
      "ע": 344,
      "ף": 345,
      "פ": 346,
      "ץ": 347,
      "צ": 348,
      "ק": 349,
      "ר": 350,
      "ש": 351,
      "ת": 352,
      "װ": 353,
      "؁": 354,
      "؂": 355,
      "،": 356,
      "؍": 357,
      "؛": 358,
      "؟": 359,
      "ء": 360,
      "ا": 361,
      "ب": 362,
      "ة": 363,
      "ت": 364,
      "ث": 365,
      "ج": 366,
      "ح": 367,
      "خ": 368,
      "د": 369,
      "ذ": 370,
      "ر": 371,
      "ز": 372,
      "س": 373,
      "ش": 374,
      "ص": 375,
      "ض": 376,
      "ط": 377,
      "ظ": 378,
      "ع": 379,
      "غ": 380,
      "ـ": 381,
      "ف": 382,
      "ق": 383,
      "ك": 384,
      "ل": 385,
      "م": 386,
      "ن": 387,
      "ه": 388,
      "و": 389,
      "ى": 390,
      "ي": 391,
      "١": 392,
      "٣": 393,
      "٥": 394,
      "ٱ": 395,
      "ٲ": 396,
      "ٹ": 397,
      "ٺ": 398,
      "ٻ": 399,
      "ټ": 400,
      "ٽ": 401,
      "پ": 402,
      "ٿ": 403,
      "ڀ": 404,
      "ځ": 405,
      "ڃ": 406,
      "ڄ": 407,
      "چ": 408,
      "ڇ": 409,
      "ڈ": 410,
      "ډ": 411,
      "ڊ": 412,
      "ڌ": 413,
      "ڍ": 414,
      "ڏ": 415,
      "ڑ": 416,
      "ژ": 417,
      "ڙ": 418,
      "ښ": 419,
      "ڠ": 420,
      "ڤ": 421,
      "ڦ": 422,
      "ک": 423,
      "ڪ": 424,
      "ګ": 425,
      "ڬ": 426,
      "گ": 427,
      "ڱ": 428,
      "ڳ": 429,
      "ڵ": 430,
      "ں": 431,
      "ڻ": 432,
      "ڼ": 433,
      "ھ": 434,
      "ہ": 435,
      "ۃ": 436,
      "ۆ": 437,
      "ۈ": 438,
      "ی": 439,
      "ۍ": 440,
      "ێ": 441,
      "ۏ": 442,
      "ې": 443,
      "ے": 444,
      "۔": 445,
      "ە": 446,
      "۝": 447,
      "۰": 448,
      "۱": 449,
      "۲": 450,
      "۳": 451,
      "۹": 452,
      "ܐ": 453,
      "ܒ": 454,
      "ܓ": 455,
      "ܕ": 456,
      "ܘ": 457,
      "ܚ": 458,
      "ܛ": 459,
      "ܝ": 460,
      "ܟ": 461,
      "ܠ": 462,
      "ܡ": 463,
      "ܢ": 464,
      "ܣ": 465,
      "ܥ": 466,
      "ܦ": 467,
      "ܩ": 468,
      "ܪ": 469,
      "ܫ": 470,
      "ܬ": 471,
      "ހ": 472,
      "ށ": 473,
      "ނ": 474,
      "ރ": 475,
      "ބ": 476,
      "ޅ": 477,
      "ކ": 478,
      "އ": 479,
      "ވ": 480,
      "މ": 481,
      "ފ": 482,
      "ދ": 483,
      "ތ": 484,
      "ލ": 485,
      "ގ": 486,
      "ސ": 487,
      "ޑ": 488,
      "ޔ": 489,
      "ޖ": 490,
      "ޙ": 491,
      "ޞ": 492,
      "ޤ": 493,
      "ߊ": 494,
      "ߎ": 495,
      "ߖ": 496,
      "ߞ": 497,
      "ߟ": 498,
      "अ": 499,
      "आ": 500,
      "इ": 501,
      "ई": 502,
      "उ": 503,
      "ऊ": 504,
      "ऋ": 505,
      "ऌ": 506,
      "ऍ": 507,
      "ऎ": 508,
      "ए": 509,
      "ऐ": 510,
      "ऑ": 511,
      "ऒ": 512,
      "ओ": 513,
      "औ": 514,
      "क": 515,
      "ख": 516,
      "ग": 517,
      "घ": 518,
      "ङ": 519,
      "च": 520,
      "छ": 521,
      "ज": 522,
      "झ": 523,
      "ञ": 524,
      "ट": 525,
      "ठ": 526,
      "ड": 527,
      "ढ": 528,
      "ण": 529,
      "त": 530,
      "थ": 531,
      "द": 532,
      "ध": 533,
      "न": 534,
      "प": 535,
      "फ": 536,
      "ब": 537,
      "भ": 538,
      "म": 539,
      "य": 540,
      "र": 541,
      "ल": 542,
      "ळ": 543,
      "व": 544,
      "श": 545,
      "ष": 546,
      "स": 547,
      "ह": 548,
      "ऽ": 549,
      "ॐ": 550,
      "ॠ": 551,
      "ॡ": 552,
      "।": 553,
      "॥": 554,
      "०": 555,
      "१": 556,
      "२": 557,
      "३": 558,
      "४": 559,
      "५": 560,
      "६": 561,
      "७": 562,
      "८": 563,
      "९": 564,
      "॰": 565,
      "ॱ": 566,
      "ॲ": 567,
      "ॵ": 568,
      "ॶ": 569,
      "ॹ": 570,
      "ॺ": 571,
      "ॻ": 572,
      "ॼ": 573,
      "ॽ": 574,
      "ॾ": 575,
      "ॿ": 576,
      "অ": 577,
      "আ": 578,
      "ই": 579,
      "ঈ": 580,
      "উ": 581,
      "ঌ": 582,
      "এ": 583,
      "ঐ": 584,
      "ও": 585,
      "ক": 586,
      "খ": 587,
      "গ": 588,
      "ঘ": 589,
      "ঙ": 590,
      "চ": 591,
      "ছ": 592,
      "জ": 593,
      "ঝ": 594,
      "ঞ": 595,
      "ট": 596,
      "ঠ": 597,
      "ড": 598,
      "ঢ": 599,
      "ণ": 600,
      "ত": 601,
      "থ": 602,
      "দ": 603,
      "ধ": 604,
      "ন": 605,
      "প": 606,
      "ফ": 607,
      "ব": 608,
      "ভ": 609,
      "ম": 610,
      "য": 611,
      "র": 612,
      "ল": 613,
      "শ": 614,
      "ষ": 615,
      "স": 616,
      "হ": 617,
      "ৎ": 618,
      "ৡ": 619,
      "১": 620,
      "৪": 621,
      "৬": 622,
      "৭": 623,
      "৮": 624,
      "৯": 625,
      "ৰ": 626,
      "ৱ": 627,
      "৲": 628,
      "৳": 629,
      "৷": 630,
      "৹": 631,
      "ਅ": 632,
      "ਆ": 633,
      "ਇ": 634,
      "ਈ": 635,
      "ਉ": 636,
      "ਊ": 637,
      "ਏ": 638,
      "ਐ": 639,
      "ਕ": 640,
      "ਖ": 641,
      "ਗ": 642,
      "ਘ": 643,
      "ਚ": 644,
      "ਛ": 645,
      "ਜ": 646,
      "ਝ": 647,
      "ਞ": 648,
      "ਟ": 649,
      "ਠ": 650,
      "ਡ": 651,
      "ਢ": 652,
      "ਣ": 653,
      "ਤ": 654,
      "ਥ": 655,
      "ਦ": 656,
      "ਧ": 657,
      "ਨ": 658,
      "ਪ": 659,
      "ਫ": 660,
      "ਬ": 661,
      "ਭ": 662,
      "ਮ": 663,
      "ਯ": 664,
      "ਰ": 665,
      "ਲ": 666,
      "ਵ": 667,
      "ਸ": 668,
      "ਹ": 669,
      "ੜ": 670,
      "੧": 671,
      "੨": 672,
      "੩": 673,
      "੪": 674,
      "੯": 675,
      "ੴ": 676,
      "અ": 677,
      "આ": 678,
      "ઇ": 679,
      "ઈ": 680,
      "ઉ": 681,
      "એ": 682,
      "ઓ": 683,
      "ક": 684,
      "ખ": 685,
      "ગ": 686,
      "ઘ": 687,
      "ચ": 688,
      "છ": 689,
      "જ": 690,
      "ઝ": 691,
      "ઞ": 692,
      "ટ": 693,
      "ઠ": 694,
      "ડ": 695,
      "ઢ": 696,
      "ણ": 697,
      "ત": 698,
      "થ": 699,
      "દ": 700,
      "ધ": 701,
      "ન": 702,
      "પ": 703,
      "ફ": 704,
      "બ": 705,
      "ભ": 706,
      "મ": 707,
      "ય": 708,
      "ર": 709,
      "લ": 710,
      "ળ": 711,
      "વ": 712,
      "શ": 713,
      "ષ": 714,
      "સ": 715,
      "હ": 716,
      "૦": 717,
      "૧": 718,
      "૨": 719,
      "૩": 720,
      "૪": 721,
      "૫": 722,
      "૭": 723,
      "૮": 724,
      "૯": 725,
      "ଅ": 726,
      "ଆ": 727,
      "ଇ": 728,
      "ଈ": 729,
      "ଉ": 730,
      "ଊ": 731,
      "ଋ": 732,
      "ଏ": 733,
      "ଐ": 734,
      "ଓ": 735,
      "ଔ": 736,
      "କ": 737,
      "ଖ": 738,
      "ଗ": 739,
      "ଘ": 740,
      "ଙ": 741,
      "ଚ": 742,
      "ଛ": 743,
      "ଜ": 744,
      "ଝ": 745,
      "ଞ": 746,
      "ଟ": 747,
      "ଠ": 748,
      "ଡ": 749,
      "ଢ": 750,
      "ଣ": 751,
      "ତ": 752,
      "ଥ": 753,
      "ଦ": 754,
      "ଧ": 755,
      "ନ": 756,
      "ପ": 757,
      "ଫ": 758,
      "ବ": 759,
      "ଭ": 760,
      "ମ": 761,
      "ଯ": 762,
      "ର": 763,
      "ଲ": 764,
      "ଳ": 765,
      "ଵ": 766,
      "ଶ": 767,
      "ଷ": 768,
      "ସ": 769,
      "ହ": 770,
      "ୟ": 771,
      "୦": 772,
      "୧": 773,
      "୨": 774,
      "୩": 775,
      "୪": 776,
      "୫": 777,
      "୬": 778,
      "୭": 779,
      "୮": 780,
      "୯": 781,
      "ୱ": 782,
      "ஃ": 783,
      "அ": 784,
      "ஆ": 785,
      "இ": 786,
      "ஈ": 787,
      "உ": 788,
      "ஊ": 789,
      "எ": 790,
      "ஏ": 791,
      "ஐ": 792,
      "ஒ": 793,
      "ஓ": 794,
      "க": 795,
      "ங": 796,
      "ச": 797,
      "ஜ": 798,
      "ஞ": 799,
      "ட": 800,
      "ண": 801,
      "த": 802,
      "ந": 803,
      "ன": 804,
      "ப": 805,
      "ம": 806,
      "ய": 807,
      "ர": 808,
      "ற": 809,
      "ல": 810,
      "ள": 811,
      "ழ": 812,
      "வ": 813,
      "ஶ": 814,
      "ஷ": 815,
      "ஸ": 816,
      "ஹ": 817,
      "௭": 818,
      "௳": 819,
      "అ": 820,
      "ఆ": 821,
      "ఇ": 822,
      "ఈ": 823,
      "ఉ": 824,
      "ఊ": 825,
      "ఎ": 826,
      "ఏ": 827,
      "ఓ": 828,
      "క": 829,
      "ఖ": 830,
      "గ": 831,
      "ఘ": 832,
      "చ": 833,
      "జ": 834,
      "ఝ": 835,
      "ట": 836,
      "డ": 837,
      "ణ": 838,
      "త": 839,
      "థ": 840,
      "ద": 841,
      "ధ": 842,
      "న": 843,
      "ప": 844,
      "ఫ": 845,
      "బ": 846,
      "భ": 847,
      "మ": 848,
      "య": 849,
      "ర": 850,
      "ఱ": 851,
      "ల": 852,
      "ళ": 853,
      "వ": 854,
      "శ": 855,
      "ష": 856,
      "స": 857,
      "హ": 858,
      "౹": 859,
      "ಅ": 860,
      "ಆ": 861,
      "ಇ": 862,
      "ಉ": 863,
      "ಎ": 864,
      "ಐ": 865,
      "ಒ": 866,
      "ಓ": 867,
      "ಕ": 868,
      "ಖ": 869,
      "ಗ": 870,
      "ಘ": 871,
      "ಚ": 872,
      "ಜ": 873,
      "ಝ": 874,
      "ಞ": 875,
      "ಟ": 876,
      "ಠ": 877,
      "ಡ": 878,
      "ಣ": 879,
      "ತ": 880,
      "ಥ": 881,
      "ದ": 882,
      "ಧ": 883,
      "ನ": 884,
      "ಪ": 885,
      "ಫ": 886,
      "ಬ": 887,
      "ಭ": 888,
      "ಮ": 889,
      "ಯ": 890,
      "ರ": 891,
      "ಲ": 892,
      "ಳ": 893,
      "ವ": 894,
      "ಶ": 895,
      "ಷ": 896,
      "ಸ": 897,
      "ಹ": 898,
      "೦": 899,
      "೧": 900,
      "೫": 901,
      "അ": 902,
      "ആ": 903,
      "ഇ": 904,
      "ഉ": 905,
      "ഊ": 906,
      "എ": 907,
      "ഏ": 908,
      "ഒ": 909,
      "ഓ": 910,
      "ക": 911,
      "ഖ": 912,
      "ഗ": 913,
      "ഘ": 914,
      "ങ": 915,
      "ച": 916,
      "ഛ": 917,
      "ജ": 918,
      "ഞ": 919,
      "ട": 920,
      "ഠ": 921,
      "ഡ": 922,
      "ണ": 923,
      "ത": 924,
      "ഥ": 925,
      "ദ": 926,
      "ധ": 927,
      "ന": 928,
      "പ": 929,
      "ഫ": 930,
      "ബ": 931,
      "ഭ": 932,
      "മ": 933,
      "യ": 934,
      "ര": 935,
      "റ": 936,
      "ല": 937,
      "ള": 938,
      "ഴ": 939,
      "വ": 940,
      "ശ": 941,
      "ഷ": 942,
      "സ": 943,
      "ഹ": 944,
      "ൺ": 945,
      "ൻ": 946,
      "ർ": 947,
      "ൽ": 948,
      "ൾ": 949,
      "අ": 950,
      "ආ": 951,
      "ඇ": 952,
      "ක": 953,
      "ග": 954,
      "ඟ": 955,
      "ච": 956,
      "ජ": 957,
      "ට": 958,
      "ඨ": 959,
      "ඩ": 960,
      "ණ": 961,
      "ත": 962,
      "ථ": 963,
      "ද": 964,
      "ධ": 965,
      "න": 966,
      "ප": 967,
      "බ": 968,
      "භ": 969,
      "ම": 970,
      "ඹ": 971,
      "ය": 972,
      "ර": 973,
      "ල": 974,
      "ව": 975,
      "ශ": 976,
      "ෂ": 977,
      "ස": 978,
      "හ": 979,
      "ළ": 980,
      "ก": 981,
      "ข": 982,
      "ค": 983,
      "ง": 984,
      "จ": 985,
      "ฉ": 986,
      "ช": 987,
      "ซ": 988,
      "ฌ": 989,
      "ญ": 990,
      "ฎ": 991,
      "ฏ": 992,
      "ฐ": 993,
      "ณ": 994,
      "ด": 995,
      "ต": 996,
      "ถ": 997,
      "ท": 998,
      "ธ": 999,
      "น": 1000,
      "บ": 1001,
      "ป": 1002,
      "ผ": 1003,
      "ฝ": 1004,
      "พ": 1005,
      "ฟ": 1006,
      "ภ": 1007,
      "ม": 1008,
      "ย": 1009,
      "ร": 1010,
      "ฤ": 1011,
      "ล": 1012,
      "ว": 1013,
      "ศ": 1014,
      "ษ": 1015,
      "ส": 1016,
      "ห": 1017,
      "ฬ": 1018,
      "อ": 1019,
      "ะ": 1020,
      "า": 1021,
      "ำ": 1022,
      "฿": 1023,
      "เ": 1024,
      "แ": 1025,
      "โ": 1026,
      "ใ": 1027,
      "ไ": 1028,
      "๐": 1029,
      "๑": 1030,
      "๒": 1031,
      "๓": 1032,
      "๔": 1033,
      "๕": 1034,
      "๖": 1035,
      "๗": 1036,
      "๘": 1037,
      "๙": 1038,
      "ກ": 1039,
      "ຂ": 1040,
      "ຄ": 1041,
      "ງ": 1042,
      "ຈ": 1043,
      "ຊ": 1044,
      "ຍ": 1045,
      "ດ": 1046,
      "ທ": 1047,
      "ນ": 1048,
      "ບ": 1049,
      "ປ": 1050,
      "ພ": 1051,
      "ມ": 1052,
      "ຣ": 1053,
      "ລ": 1054,
      "ວ": 1055,
      "ສ": 1056,
      "ຫ": 1057,
      "ອ": 1058,
      "ຮ": 1059,
      "ະ": 1060,
      "າ": 1061,
      "ຳ": 1062,
      "ຽ": 1063,
      "ເ": 1064,
      "ແ": 1065,
      "ໄ": 1066,
      "༄": 1067,
      "་": 1068,
      "༌": 1069,
      "།": 1070,
      "༔": 1071,
      "ཀ": 1072,
      "ཁ": 1073,
      "ག": 1074,
      "ང": 1075,
      "ཅ": 1076,
      "ཆ": 1077,
      "ཇ": 1078,
      "ཉ": 1079,
      "ཊ": 1080,
      "ཌ": 1081,
      "ཎ": 1082,
      "ཏ": 1083,
      "ཐ": 1084,
      "ད": 1085,
      "ན": 1086,
      "པ": 1087,
      "ཕ": 1088,
      "བ": 1089,
      "མ": 1090,
      "ཙ": 1091,
      "ཚ": 1092,
      "ཛ": 1093,
      "ཝ": 1094,
      "ཞ": 1095,
      "ཟ": 1096,
      "འ": 1097,
      "ཡ": 1098,
      "ར": 1099,
      "ལ": 1100,
      "ཤ": 1101,
      "ས": 1102,
      "ཧ": 1103,
      "ཨ": 1104,
      "က": 1105,
      "ခ": 1106,
      "ဂ": 1107,
      "င": 1108,
      "စ": 1109,
      "ဇ": 1110,
      "ဉ": 1111,
      "ည": 1112,
      "ဋ": 1113,
      "ဏ": 1114,
      "တ": 1115,
      "ထ": 1116,
      "ဒ": 1117,
      "ဓ": 1118,
      "န": 1119,
      "ပ": 1120,
      "ဖ": 1121,
      "ဗ": 1122,
      "ဘ": 1123,
      "မ": 1124,
      "ယ": 1125,
      "ရ": 1126,
      "လ": 1127,
      "ဝ": 1128,
      "သ": 1129,
      "ဟ": 1130,
      "အ": 1131,
      "ဥ": 1132,
      "ဿ": 1133,
      "၀": 1134,
      "၁": 1135,
      "၅": 1136,
      "၆": 1137,
      "၇": 1138,
      "၉": 1139,
      "၊": 1140,
      "ၵ": 1141,
      "ၽ": 1142,
      "ა": 1143,
      "ბ": 1144,
      "გ": 1145,
      "დ": 1146,
      "ე": 1147,
      "ვ": 1148,
      "ზ": 1149,
      "თ": 1150,
      "ი": 1151,
      "კ": 1152,
      "ლ": 1153,
      "მ": 1154,
      "ნ": 1155,
      "ო": 1156,
      "პ": 1157,
      "რ": 1158,
      "ს": 1159,
      "ტ": 1160,
      "უ": 1161,
      "ფ": 1162,
      "ქ": 1163,
      "ღ": 1164,
      "ყ": 1165,
      "შ": 1166,
      "ძ": 1167,
      "ხ": 1168,
      "ჰ": 1169,
      "ᄀ": 1170,
      "ᄁ": 1171,
      "ᄂ": 1172,
      "ᄃ": 1173,
      "ᄄ": 1174,
      "ᄅ": 1175,
      "ᄆ": 1176,
      "ᄇ": 1177,
      "ᄈ": 1178,
      "ᄉ": 1179,
      "ᄊ": 1180,
      "ᄋ": 1181,
      "ᄌ": 1182,
      "ᄍ": 1183,
      "ᄎ": 1184,
      "ᄏ": 1185,
      "ᄐ": 1186,
      "ᄑ": 1187,
      "ᄒ": 1188,
      "ᅡ": 1189,
      "ᅢ": 1190,
      "ᅣ": 1191,
      "ᅥ": 1192,
      "ᅦ": 1193,
      "ᅧ": 1194,
      "ᅨ": 1195,
      "ᅩ": 1196,
      "ᅪ": 1197,
      "ᅫ": 1198,
      "ᅬ": 1199,
      "ᅭ": 1200,
      "ᅮ": 1201,
      "ᅯ": 1202,
      "ᅱ": 1203,
      "ᅲ": 1204,
      "ᅳ": 1205,
      "ᅴ": 1206,
      "ᅵ": 1207,
      "ᆨ": 1208,
      "ᆩ": 1209,
      "ᆫ": 1210,
      "ᆭ": 1211,
      "ᆮ": 1212,
      "ᆯ": 1213,
      "ᆰ": 1214,
      "ᆱ": 1215,
      "ᆷ": 1216,
      "ᆸ": 1217,
      "ᆹ": 1218,
      "ᆺ": 1219,
      "ᆻ": 1220,
      "ᆼ": 1221,
      "ᆽ": 1222,
      "ᆾ": 1223,
      "ᇀ": 1224,
      "ᇁ": 1225,
      "ᇂ": 1226,
      "ላ": 1227,
      "ሌ": 1228,
      "ል": 1229,
      "ሐ": 1230,
      "ሔ": 1231,
      "ሕ": 1232,
      "ሚ": 1233,
      "ማ": 1234,
      "ም": 1235,
      "ሥ": 1236,
      "ረ": 1237,
      "ሪ": 1238,
      "ራ": 1239,
      "ሬ": 1240,
      "ር": 1241,
      "ሮ": 1242,
      "ሰ": 1243,
      "ሳ": 1244,
      "ስ": 1245,
      "ሶ": 1246,
      "ሻ": 1247,
      "ቀ": 1248,
      "ቅ": 1249,
      "በ": 1250,
      "ቡ": 1251,
      "ባ": 1252,
      "ቤ": 1253,
      "ብ": 1254,
      "ቦ": 1255,
      "ተ": 1256,
      "ታ": 1257,
      "ት": 1258,
      "ች": 1259,
      "ና": 1260,
      "ን": 1261,
      "አ": 1262,
      "ኢ": 1263,
      "ኦ": 1264,
      "ካ": 1265,
      "ክ": 1266,
      "ወ": 1267,
      "ዋ": 1268,
      "ዕ": 1269,
      "ዝ": 1270,
      "ዞ": 1271,
      "የ": 1272,
      "ያ": 1273,
      "ይ": 1274,
      "ዮ": 1275,
      "ደ": 1276,
      "ዲ": 1277,
      "ዳ": 1278,
      "ድ": 1279,
      "ጉ": 1280,
      "ጋ": 1281,
      "ግ": 1282,
      "ጣ": 1283,
      "ጵ": 1284,
      "ፋ": 1285,
      "ፍ": 1286,
      "ᐃ": 1287,
      "ᐊ": 1288,
      "ᐟ": 1289,
      "ᐧ": 1290,
      "ᐨ": 1291,
      "ᑖ": 1292,
      "ᑦ": 1293,
      "ᑭ": 1294,
      "ᑯ": 1295,
      "ᒃ": 1296,
      "ᒡ": 1297,
      "ᒣ": 1298,
      "ᒧ": 1299,
      "ᓄ": 1300,
      "ᓇ": 1301,
      "ᓗ": 1302,
      "ᓯ": 1303,
      "ᕗ": 1304,
      "ᕿ": 1305,
      "ᖃ": 1306,
      "ᖅ": 1307,
      "ᖹ": 1308,
      "ក": 1309,
      "ខ": 1310,
      "គ": 1311,
      "ឃ": 1312,
      "ង": 1313,
      "ច": 1314,
      "ជ": 1315,
      "ឌ": 1316,
      "ណ": 1317,
      "ត": 1318,
      "ថ": 1319,
      "ទ": 1320,
      "ធ": 1321,
      "ន": 1322,
      "ប": 1323,
      "ព": 1324,
      "ភ": 1325,
      "ម": 1326,
      "យ": 1327,
      "រ": 1328,
      "ល": 1329,
      "វ": 1330,
      "ឝ": 1331,
      "ស": 1332,
      "ហ": 1333,
      "អ": 1334,
      "ឥ": 1335,
      "ឧ": 1336,
      "ឯ": 1337,
      "៛": 1338,
      "១": 1339,
      "២": 1340,
      "៧": 1341,
      "᠊": 1342,
      "᠎": 1343,
      "ᠠ": 1344,
      "ᠢ": 1345,
      "ᠣ": 1346,
      "ᠤ": 1347,
      "ᠥ": 1348,
      "ᠦ": 1349,
      "ᠨ": 1350,
      "ᠩ": 1351,
      "ᠪ": 1352,
      "ᠬ": 1353,
      "ᠭ": 1354,
      "ᠮ": 1355,
      "ᠯ": 1356,
      "ᠰ": 1357,
      "ᠳ": 1358,
      "ᠴ": 1359,
      "ᠶ": 1360,
      "ᠷ": 1361,
      "ᡝ": 1362,
      "ᡠ": 1363,
      "ᡤ": 1364,
      "ᡥ": 1365,
      "ᡨ": 1366,
      "ᡩ": 1367,
      "ᡳ": 1368,
      "ᡴ": 1369,
      "ᡵ": 1370,
      "ᮒ": 1371,
      "ᮓ": 1372,
      "ᮔ": 1373,
      "ᮝ": 1374,
      "ᮞ": 1375,
      "ᱚ": 1376,
      "ᱛ": 1377,
      "ᱜ": 1378,
      "ᱞ": 1379,
      "ᱟ": 1380,
      "ᱠ": 1381,
      "ᱡ": 1382,
      "ᱢ": 1383,
      "ᱤ": 1384,
      "ᱦ": 1385,
      "ᱧ": 1386,
      "ᱨ": 1387,
      "ᱩ": 1388,
      "ᱪ": 1389,
      "ᱯ": 1390,
      "ᱰ": 1391,
      "ᱱ": 1392,
      "ᱲ": 1393,
      "ᱴ": 1394,
      "ᱵ": 1395,
      "ᱷ": 1396,
      "ᱸ": 1397,
      "ᱹ": 1398,
      "ᱺ": 1399,
      "ᱽ": 1400,
      "ᳬ": 1401,
      "ᴀ": 1402,
      "ᴇ": 1403,
      "ᴍ": 1404,
      "ᴏ": 1405,
      "ᴢ": 1406,
      "ᴳ": 1407,
      "ᵐ": 1408,
      "ᵑ": 1409,
      "ᵝ": 1410,
      "ᵻ": 1411,
      "ᶠ": 1412,
      "ᶰ": 1413,
      "᾽": 1414,
      "᾿": 1415,
      "​": 1416,
      "‌": 1417,
      "‍": 1418,
      "‎": 1419,
      "‏": 1420,
      "‐": 1421,
      "‑": 1422,
      "‒": 1423,
      "–": 1424,
      "—": 1425,
      "―": 1426,
      "‖": 1427,
      "‘": 1428,
      "’": 1429,
      "‚": 1430,
      "‛": 1431,
      "“": 1432,
      "”": 1433,
      "„": 1434,
      "†": 1435,
      "‡": 1436,
      "•": 1437,
      "…": 1438,
      "‪": 1439,
      "‬": 1440,
      "‰": 1441,
      "′": 1442,
      "″": 1443,
      "‹": 1444,
      "›": 1445,
      "※": 1446,
      "⁄": 1447,
      "⁎": 1448,
      "⁠": 1449,
      "⁰": 1450,
      "⁴": 1451,
      "⁵": 1452,
      "⁶": 1453,
      "⁸": 1454,
      "⁹": 1455,
      "⁺": 1456,
      "⁻": 1457,
      "ⁿ": 1458,
      "₀": 1459,
      "₁": 1460,
      "₂": 1461,
      "₃": 1462,
      "₄": 1463,
      "₆": 1464,
      "₈": 1465,
      "₡": 1466,
      "₣": 1467,
      "₤": 1468,
      "₥": 1469,
      "₦": 1470,
      "₨": 1471,
      "₩": 1472,
      "₪": 1473,
      "₫": 1474,
      "€": 1475,
      "₭": 1476,
      "₮": 1477,
      "₱": 1478,
      "₲": 1479,
      "₴": 1480,
      "₵": 1481,
      "₹": 1482,
      "₽": 1483,
      "ℂ": 1484,
      "℃": 1485,
      "℅": 1486,
      "℉": 1487,
      "ℓ": 1488,
      "№": 1489,
      "ℝ": 1490,
      "℞": 1491,
      "™": 1492,
      "ℳ": 1493,
      "⅓": 1494,
      "⅔": 1495,
      "⅛": 1496,
      "⅜": 1497,
      "⅝": 1498,
      "ⅱ": 1499,
      "←": 1500,
      "↑": 1501,
      "→": 1502,
      "↓": 1503,
      "↔": 1504,
      "↵": 1505,
      "↺": 1506,
      "⇌": 1507,
      "⇒": 1508,
      "⇔": 1509,
      "⇨": 1510,
      "∀": 1511,
      "∂": 1512,
      "∃": 1513,
      "∆": 1514,
      "∇": 1515,
      "∈": 1516,
      "∏": 1517,
      "∑": 1518,
      "−": 1519,
      "∗": 1520,
      "∘": 1521,
      "∙": 1522,
      "√": 1523,
      "∝": 1524,
      "∞": 1525,
      "∧": 1526,
      "∩": 1527,
      "∪": 1528,
      "∫": 1529,
      "∴": 1530,
      "≃": 1531,
      "≅": 1532,
      "≈": 1533,
      "≡": 1534,
      "≤": 1535,
      "≥": 1536,
      "≫": 1537,
      "⊂": 1538,
      "⊃": 1539,
      "⊕": 1540,
      "⊖": 1541,
      "⊙": 1542,
      "⋅": 1543,
      "⋆": 1544,
      "⋯": 1545,
      "⌈": 1546,
      "⌉": 1547,
      "⌠": 1548,
      "⏑": 1549,
      "─": 1550,
      "│": 1551,
      "┼": 1552,
      "╘": 1553,
      "█": 1554,
      "■": 1555,
      "□": 1556,
      "▪": 1557,
      "▲": 1558,
      "▼": 1559,
      "◆": 1560,
      "○": 1561,
      "◌": 1562,
      "●": 1563,
      "◕": 1564,
      "◦": 1565,
      "◾": 1566,
      "☁": 1567,
      "☂": 1568,
      "☃": 1569,
      "★": 1570,
      "☆": 1571,
      "☉": 1572,
      "☊": 1573,
      "☑": 1574,
      "☒": 1575,
      "☪": 1576,
      "☫": 1577,
      "☬": 1578,
      "☸": 1579,
      "☺": 1580,
      "♀": 1581,
      "♂": 1582,
      "♆": 1583,
      "♎": 1584,
      "♐": 1585,
      "♔": 1586,
      "♕": 1587,
      "♖": 1588,
      "♗": 1589,
      "♘": 1590,
      "♙": 1591,
      "♚": 1592,
      "♛": 1593,
      "♜": 1594,
      "♝": 1595,
      "♞": 1596,
      "♟": 1597,
      "♠": 1598,
      "♡": 1599,
      "♣": 1600,
      "♥": 1601,
      "♦": 1602,
      "♭": 1603,
      "♯": 1604,
      "⚕": 1605,
      "⚠": 1606,
      "⚥": 1607,
      "⚧": 1608,
      "⚰": 1609,
      "✅": 1610,
      "✈": 1611,
      "✌": 1612,
      "✍": 1613,
      "✓": 1614,
      "✔": 1615,
      "✡": 1616,
      "✦": 1617,
      "❇": 1618,
      "❍": 1619,
      "❣": 1620,
      "❤": 1621,
      "➖": 1622,
      "➡": 1623,
      "➤": 1624,
      "➥": 1625,
      "⟨": 1626,
      "⟩": 1627,
      "⟶": 1628,
      "⟷": 1629,
      "⠁": 1630,
      "⠂": 1631,
      "⠃": 1632,
      "⠄": 1633,
      "⠅": 1634,
      "⠇": 1635,
      "⠈": 1636,
      "⠉": 1637,
      "⠊": 1638,
      "⠌": 1639,
      "⠍": 1640,
      "⠎": 1641,
      "⠏": 1642,
      "⠐": 1643,
      "⠑": 1644,
      "⠒": 1645,
      "⠓": 1646,
      "⠔": 1647,
      "⠕": 1648,
      "⠖": 1649,
      "⠗": 1650,
      "⠘": 1651,
      "⠙": 1652,
      "⠚": 1653,
      "⠛": 1654,
      "⠜": 1655,
      "⠝": 1656,
      "⠞": 1657,
      "⠟": 1658,
      "⠠": 1659,
      "⠡": 1660,
      "⠣": 1661,
      "⠥": 1662,
      "⠧": 1663,
      "⠨": 1664,
      "⠩": 1665,
      "⠪": 1666,
      "⠫": 1667,
      "⠬": 1668,
      "⠭": 1669,
      "⠮": 1670,
      "⠯": 1671,
      "⠰": 1672,
      "⠱": 1673,
      "⠲": 1674,
      "⠳": 1675,
      "⠴": 1676,
      "⠵": 1677,
      "⠸": 1678,
      "⠹": 1679,
      "⠺": 1680,
      "⠻": 1681,
      "⠼": 1682,
      "⠽": 1683,
      "⠾": 1684,
      "⠿": 1685,
      "⧫": 1686,
      "⬇": 1687,
      "⭐": 1688,
      "ⲏ": 1689,
      "ⲙ": 1690,
      "ⴰ": 1691,
      "ⴱ": 1692,
      "ⴳ": 1693,
      "ⴵ": 1694,
      "ⴷ": 1695,
      "ⴹ": 1696,
      "ⴻ": 1697,
      "ⴼ": 1698,
      "ⴽ": 1699,
      "ⵀ": 1700,
      "ⵇ": 1701,
      "ⵉ": 1702,
      "ⵊ": 1703,
      "ⵍ": 1704,
      "ⵎ": 1705,
      "ⵏ": 1706,
      "ⵓ": 1707,
      "ⵔ": 1708,
      "ⵕ": 1709,
      "ⵖ": 1710,
      "ⵙ": 1711,
      "ⵛ": 1712,
      "ⵜ": 1713,
      "ⵟ": 1714,
      "ⵡ": 1715,
      "ⵢ": 1716,
      "ⵣ": 1717,
      "、": 1718,
      "。": 1719,
      "〇": 1720,
      "〉": 1721,
      "《": 1722,
      "》": 1723,
      "「": 1724,
      "」": 1725,
      "『": 1726,
      "』": 1727,
      "【": 1728,
      "】": 1729,
      "〜": 1730,
      "あ": 1731,
      "い": 1732,
      "ぅ": 1733,
      "う": 1734,
      "え": 1735,
      "お": 1736,
      "か": 1737,
      "き": 1738,
      "く": 1739,
      "け": 1740,
      "こ": 1741,
      "さ": 1742,
      "し": 1743,
      "す": 1744,
      "せ": 1745,
      "そ": 1746,
      "た": 1747,
      "ち": 1748,
      "っ": 1749,
      "つ": 1750,
      "て": 1751,
      "と": 1752,
      "な": 1753,
      "に": 1754,
      "ね": 1755,
      "の": 1756,
      "は": 1757,
      "ひ": 1758,
      "ふ": 1759,
      "へ": 1760,
      "ほ": 1761,
      "ま": 1762,
      "み": 1763,
      "む": 1764,
      "め": 1765,
      "も": 1766,
      "ゃ": 1767,
      "や": 1768,
      "ゅ": 1769,
      "ゆ": 1770,
      "ょ": 1771,
      "よ": 1772,
      "ら": 1773,
      "り": 1774,
      "る": 1775,
      "れ": 1776,
      "ろ": 1777,
      "わ": 1778,
      "を": 1779,
      "ん": 1780,
      "ァ": 1781,
      "ア": 1782,
      "ィ": 1783,
      "イ": 1784,
      "ウ": 1785,
      "ェ": 1786,
      "エ": 1787,
      "ォ": 1788,
      "オ": 1789,
      "カ": 1790,
      "キ": 1791,
      "ク": 1792,
      "ケ": 1793,
      "コ": 1794,
      "サ": 1795,
      "シ": 1796,
      "ス": 1797,
      "セ": 1798,
      "ソ": 1799,
      "タ": 1800,
      "チ": 1801,
      "ッ": 1802,
      "ツ": 1803,
      "テ": 1804,
      "ト": 1805,
      "ナ": 1806,
      "ニ": 1807,
      "ヌ": 1808,
      "ネ": 1809,
      "ノ": 1810,
      "ハ": 1811,
      "ヒ": 1812,
      "フ": 1813,
      "ヘ": 1814,
      "ホ": 1815,
      "マ": 1816,
      "ミ": 1817,
      "ム": 1818,
      "メ": 1819,
      "モ": 1820,
      "ャ": 1821,
      "ュ": 1822,
      "ユ": 1823,
      "ョ": 1824,
      "ヨ": 1825,
      "ラ": 1826,
      "リ": 1827,
      "ル": 1828,
      "レ": 1829,
      "ロ": 1830,
      "ワ": 1831,
      "ヱ": 1832,
      "ヲ": 1833,
      "ン": 1834,
      "・": 1835,
      "ー": 1836,
      "ㅡ": 1837,
      "ㅤ": 1838,
      "䘯": 1839,
      "一": 1840,
      "丁": 1841,
      "七": 1842,
      "万": 1843,
      "丈": 1844,
      "三": 1845,
      "上": 1846,
      "下": 1847,
      "不": 1848,
      "与": 1849,
      "丑": 1850,
      "丕": 1851,
      "世": 1852,
      "丘": 1853,
      "业": 1854,
      "东": 1855,
      "両": 1856,
      "严": 1857,
      "並": 1858,
      "个": 1859,
      "中": 1860,
      "串": 1861,
      "丵": 1862,
      "丹": 1863,
      "为": 1864,
      "主": 1865,
      "丽": 1866,
      "久": 1867,
      "义": 1868,
      "之": 1869,
      "乌": 1870,
      "乐": 1871,
      "乔": 1872,
      "乗": 1873,
      "乘": 1874,
      "乙": 1875,
      "九": 1876,
      "乞": 1877,
      "也": 1878,
      "习": 1879,
      "乡": 1880,
      "书": 1881,
      "乳": 1882,
      "了": 1883,
      "争": 1884,
      "事": 1885,
      "二": 1886,
      "于": 1887,
      "云": 1888,
      "互": 1889,
      "五": 1890,
      "井": 1891,
      "亜": 1892,
      "亞": 1893,
      "亡": 1894,
      "交": 1895,
      "亥": 1896,
      "亦": 1897,
      "产": 1898,
      "京": 1899,
      "亭": 1900,
      "人": 1901,
      "亻": 1902,
      "什": 1903,
      "仁": 1904,
      "今": 1905,
      "介": 1906,
      "仏": 1907,
      "仑": 1908,
      "仔": 1909,
      "付": 1910,
      "仙": 1911,
      "代": 1912,
      "令": 1913,
      "仮": 1914,
      "仲": 1915,
      "件": 1916,
      "任": 1917,
      "份": 1918,
      "企": 1919,
      "伊": 1920,
      "休": 1921,
      "会": 1922,
      "伝": 1923,
      "伟": 1924,
      "传": 1925,
      "伦": 1926,
      "伯": 1927,
      "伴": 1928,
      "伸": 1929,
      "伽": 1930,
      "位": 1931,
      "住": 1932,
      "佐": 1933,
      "体": 1934,
      "何": 1935,
      "佛": 1936,
      "作": 1937,
      "你": 1938,
      "使": 1939,
      "例": 1940,
      "侍": 1941,
      "依": 1942,
      "侠": 1943,
      "侬": 1944,
      "侯": 1945,
      "侵": 1946,
      "保": 1947,
      "信": 1948,
      "俣": 1949,
      "俪": 1950,
      "修": 1951,
      "俱": 1952,
      "俵": 1953,
      "倉": 1954,
      "個": 1955,
      "候": 1956,
      "倩": 1957,
      "倪": 1958,
      "倫": 1959,
      "倭": 1960,
      "值": 1961,
      "健": 1962,
      "偵": 1963,
      "備": 1964,
      "傲": 1965,
      "傳": 1966,
      "働": 1967,
      "像": 1968,
      "僮": 1969,
      "價": 1970,
      "儂": 1971,
      "儒": 1972,
      "儲": 1973,
      "儿": 1974,
      "元": 1975,
      "兄": 1976,
      "充": 1977,
      "先": 1978,
      "光": 1979,
      "克": 1980,
      "免": 1981,
      "兎": 1982,
      "兔": 1983,
      "党": 1984,
      "兜": 1985,
      "入": 1986,
      "內": 1987,
      "全": 1988,
      "兩": 1989,
      "八": 1990,
      "公": 1991,
      "六": 1992,
      "兰": 1993,
      "共": 1994,
      "关": 1995,
      "兴": 1996,
      "兵": 1997,
      "其": 1998,
      "具": 1999,
      "典": 2000,
      "冀": 2001,
      "内": 2002,
      "冊": 2003,
      "再": 2004,
      "冒": 2005,
      "写": 2006,
      "军": 2007,
      "冥": 2008,
      "冨": 2009,
      "冬": 2010,
      "冰": 2011,
      "冲": 2012,
      "冷": 2013,
      "净": 2014,
      "凤": 2015,
      "凰": 2016,
      "出": 2017,
      "函": 2018,
      "刀": 2019,
      "刃": 2020,
      "分": 2021,
      "切": 2022,
      "刊": 2023,
      "列": 2024,
      "刘": 2025,
      "刚": 2026,
      "初": 2027,
      "別": 2028,
      "利": 2029,
      "制": 2030,
      "刷": 2031,
      "券": 2032,
      "刺": 2033,
      "前": 2034,
      "剣": 2035,
      "副": 2036,
      "劉": 2037,
      "劍": 2038,
      "力": 2039,
      "功": 2040,
      "加": 2041,
      "动": 2042,
      "助": 2043,
      "努": 2044,
      "労": 2045,
      "勇": 2046,
      "勋": 2047,
      "勒": 2048,
      "動": 2049,
      "務": 2050,
      "勝": 2051,
      "勢": 2052,
      "勾": 2053,
      "勿": 2054,
      "匁": 2055,
      "匂": 2056,
      "包": 2057,
      "匈": 2058,
      "化": 2059,
      "北": 2060,
      "匡": 2061,
      "匹": 2062,
      "区": 2063,
      "區": 2064,
      "十": 2065,
      "千": 2066,
      "升": 2067,
      "午": 2068,
      "半": 2069,
      "卍": 2070,
      "华": 2071,
      "卐": 2072,
      "卑": 2073,
      "協": 2074,
      "单": 2075,
      "南": 2076,
      "単": 2077,
      "博": 2078,
      "占": 2079,
      "卡": 2080,
      "卦": 2081,
      "卫": 2082,
      "卯": 2083,
      "印": 2084,
      "原": 2085,
      "厳": 2086,
      "去": 2087,
      "县": 2088,
      "参": 2089,
      "叉": 2090,
      "及": 2091,
      "友": 2092,
      "反": 2093,
      "収": 2094,
      "发": 2095,
      "叔": 2096,
      "取": 2097,
      "受": 2098,
      "口": 2099,
      "古": 2100,
      "叭": 2101,
      "可": 2102,
      "台": 2103,
      "史": 2104,
      "右": 2105,
      "叶": 2106,
      "司": 2107,
      "吃": 2108,
      "各": 2109,
      "合": 2110,
      "吉": 2111,
      "同": 2112,
      "名": 2113,
      "吐": 2114,
      "向": 2115,
      "吗": 2116,
      "君": 2117,
      "吠": 2118,
      "含": 2119,
      "吳": 2120,
      "吴": 2121,
      "吽": 2122,
      "呂": 2123,
      "告": 2124,
      "员": 2125,
      "呢": 2126,
      "周": 2127,
      "呪": 2128,
      "味": 2129,
      "呼": 2130,
      "命": 2131,
      "和": 2132,
      "咒": 2133,
      "咪": 2134,
      "哀": 2135,
      "品": 2136,
      "哈": 2137,
      "哉": 2138,
      "員": 2139,
      "哥": 2140,
      "哲": 2141,
      "唐": 2142,
      "唵": 2143,
      "商": 2144,
      "問": 2145,
      "啟": 2146,
      "喀": 2147,
      "善": 2148,
      "喇": 2149,
      "喒": 2150,
      "喜": 2151,
      "喪": 2152,
      "單": 2153,
      "嗆": 2154,
      "嗎": 2155,
      "嘉": 2156,
      "嘛": 2157,
      "嘴": 2158,
      "噂": 2159,
      "器": 2160,
      "噶": 2161,
      "囊": 2162,
      "囚": 2163,
      "四": 2164,
      "回": 2165,
      "团": 2166,
      "団": 2167,
      "园": 2168,
      "図": 2169,
      "固": 2170,
      "国": 2171,
      "图": 2172,
      "國": 2173,
      "園": 2174,
      "圓": 2175,
      "圖": 2176,
      "團": 2177,
      "圜": 2178,
      "土": 2179,
      "圣": 2180,
      "在": 2181,
      "圭": 2182,
      "地": 2183,
      "圳": 2184,
      "坂": 2185,
      "均": 2186,
      "坊": 2187,
      "坎": 2188,
      "坑": 2189,
      "坙": 2190,
      "坚": 2191,
      "坡": 2192,
      "坦": 2193,
      "坪": 2194,
      "型": 2195,
      "垒": 2196,
      "垣": 2197,
      "城": 2198,
      "埔": 2199,
      "域": 2200,
      "基": 2201,
      "堂": 2202,
      "報": 2203,
      "場": 2204,
      "塊": 2205,
      "塔": 2206,
      "塘": 2207,
      "塩": 2208,
      "增": 2209,
      "墨": 2210,
      "墾": 2211,
      "壊": 2212,
      "士": 2213,
      "壮": 2214,
      "壹": 2215,
      "壽": 2216,
      "处": 2217,
      "备": 2218,
      "夏": 2219,
      "夕": 2220,
      "外": 2221,
      "多": 2222,
      "夜": 2223,
      "夢": 2224,
      "大": 2225,
      "天": 2226,
      "太": 2227,
      "夫": 2228,
      "央": 2229,
      "失": 2230,
      "头": 2231,
      "奇": 2232,
      "奈": 2233,
      "奉": 2234,
      "契": 2235,
      "套": 2236,
      "奠": 2237,
      "奥": 2238,
      "女": 2239,
      "奴": 2240,
      "奶": 2241,
      "好": 2242,
      "妈": 2243,
      "妖": 2244,
      "妙": 2245,
      "妞": 2246,
      "妹": 2247,
      "妻": 2248,
      "始": 2249,
      "姐": 2250,
      "姑": 2251,
      "委": 2252,
      "姦": 2253,
      "姫": 2254,
      "姬": 2255,
      "威": 2256,
      "娘": 2257,
      "娥": 2258,
      "娼": 2259,
      "婁": 2260,
      "婆": 2261,
      "婉": 2262,
      "婚": 2263,
      "婦": 2264,
      "媛": 2265,
      "媽": 2266,
      "嫌": 2267,
      "嫻": 2268,
      "子": 2269,
      "孔": 2270,
      "字": 2271,
      "孙": 2272,
      "季": 2273,
      "学": 2274,
      "孩": 2275,
      "孫": 2276,
      "學": 2277,
      "宀": 2278,
      "宁": 2279,
      "宅": 2280,
      "宇": 2281,
      "守": 2282,
      "安": 2283,
      "宋": 2284,
      "完": 2285,
      "宗": 2286,
      "官": 2287,
      "定": 2288,
      "宝": 2289,
      "实": 2290,
      "実": 2291,
      "宠": 2292,
      "客": 2293,
      "宣": 2294,
      "室": 2295,
      "宮": 2296,
      "害": 2297,
      "宵": 2298,
      "家": 2299,
      "宿": 2300,
      "寄": 2301,
      "寅": 2302,
      "密": 2303,
      "富": 2304,
      "寒": 2305,
      "實": 2306,
      "寧": 2307,
      "寨": 2308,
      "寶": 2309,
      "寸": 2310,
      "寺": 2311,
      "导": 2312,
      "寿": 2313,
      "封": 2314,
      "専": 2315,
      "射": 2316,
      "将": 2317,
      "將": 2318,
      "專": 2319,
      "尊": 2320,
      "尋": 2321,
      "對": 2322,
      "導": 2323,
      "小": 2324,
      "少": 2325,
      "尔": 2326,
      "尖": 2327,
      "尚": 2328,
      "就": 2329,
      "尺": 2330,
      "尼": 2331,
      "局": 2332,
      "居": 2333,
      "屈": 2334,
      "届": 2335,
      "屋": 2336,
      "屏": 2337,
      "展": 2338,
      "属": 2339,
      "屠": 2340,
      "屭": 2341,
      "屯": 2342,
      "山": 2343,
      "屿": 2344,
      "岐": 2345,
      "岗": 2346,
      "岛": 2347,
      "岡": 2348,
      "岩": 2349,
      "岳": 2350,
      "岸": 2351,
      "峡": 2352,
      "峦": 2353,
      "峰": 2354,
      "島": 2355,
      "峽": 2356,
      "崎": 2357,
      "崛": 2358,
      "崩": 2359,
      "嶺": 2360,
      "嶼": 2361,
      "川": 2362,
      "州": 2363,
      "巢": 2364,
      "工": 2365,
      "左": 2366,
      "巧": 2367,
      "巳": 2368,
      "巴": 2369,
      "巷": 2370,
      "巻": 2371,
      "市": 2372,
      "布": 2373,
      "师": 2374,
      "希": 2375,
      "帕": 2376,
      "帖": 2377,
      "帛": 2378,
      "帝": 2379,
      "師": 2380,
      "席": 2381,
      "帯": 2382,
      "帶": 2383,
      "常": 2384,
      "幌": 2385,
      "幕": 2386,
      "幞": 2387,
      "幣": 2388,
      "干": 2389,
      "平": 2390,
      "年": 2391,
      "幸": 2392,
      "幹": 2393,
      "幻": 2394,
      "幼": 2395,
      "幽": 2396,
      "广": 2397,
      "広": 2398,
      "庄": 2399,
      "庆": 2400,
      "库": 2401,
      "底": 2402,
      "店": 2403,
      "庙": 2404,
      "府": 2405,
      "度": 2406,
      "庭": 2407,
      "庶": 2408,
      "康": 2409,
      "廈": 2410,
      "廉": 2411,
      "廊": 2412,
      "廓": 2413,
      "廟": 2414,
      "廣": 2415,
      "建": 2416,
      "开": 2417,
      "弁": 2418,
      "式": 2419,
      "引": 2420,
      "弘": 2421,
      "弥": 2422,
      "弦": 2423,
      "弧": 2424,
      "張": 2425,
      "強": 2426,
      "强": 2427,
      "弼": 2428,
      "弾": 2429,
      "彊": 2430,
      "当": 2431,
      "彡": 2432,
      "形": 2433,
      "彦": 2434,
      "彪": 2435,
      "彬": 2436,
      "彭": 2437,
      "彰": 2438,
      "影": 2439,
      "役": 2440,
      "彼": 2441,
      "征": 2442,
      "很": 2443,
      "律": 2444,
      "後": 2445,
      "徐": 2446,
      "徒": 2447,
      "得": 2448,
      "御": 2449,
      "復": 2450,
      "微": 2451,
      "徳": 2452,
      "德": 2453,
      "徽": 2454,
      "心": 2455,
      "必": 2456,
      "忍": 2457,
      "志": 2458,
      "忠": 2459,
      "快": 2460,
      "念": 2461,
      "忽": 2462,
      "怀": 2463,
      "思": 2464,
      "怡": 2465,
      "急": 2466,
      "性": 2467,
      "怪": 2468,
      "总": 2469,
      "恋": 2470,
      "恐": 2471,
      "恒": 2472,
      "恢": 2473,
      "恥": 2474,
      "恩": 2475,
      "息": 2476,
      "悉": 2477,
      "悟": 2478,
      "悲": 2479,
      "情": 2480,
      "惨": 2481,
      "想": 2482,
      "愈": 2483,
      "愚": 2484,
      "愛": 2485,
      "感": 2486,
      "慈": 2487,
      "態": 2488,
      "慕": 2489,
      "慧": 2490,
      "慶": 2491,
      "憲": 2492,
      "應": 2493,
      "戀": 2494,
      "戌": 2495,
      "戎": 2496,
      "成": 2497,
      "我": 2498,
      "战": 2499,
      "戚": 2500,
      "戦": 2501,
      "截": 2502,
      "戰": 2503,
      "戶": 2504,
      "戸": 2505,
      "房": 2506,
      "所": 2507,
      "扇": 2508,
      "手": 2509,
      "才": 2510,
      "扎": 2511,
      "打": 2512,
      "批": 2513,
      "承": 2514,
      "技": 2515,
      "把": 2516,
      "抗": 2517,
      "报": 2518,
      "抳": 2519,
      "抽": 2520,
      "拉": 2521,
      "拔": 2522,
      "拙": 2523,
      "招": 2524,
      "拜": 2525,
      "拱": 2526,
      "拳": 2527,
      "持": 2528,
      "指": 2529,
      "挙": 2530,
      "振": 2531,
      "损": 2532,
      "探": 2533,
      "接": 2534,
      "揚": 2535,
      "援": 2536,
      "搏": 2537,
      "搜": 2538,
      "携": 2539,
      "摩": 2540,
      "播": 2541,
      "撮": 2542,
      "擂": 2543,
      "擒": 2544,
      "攝": 2545,
      "攣": 2546,
      "支": 2547,
      "收": 2548,
      "改": 2549,
      "放": 2550,
      "政": 2551,
      "故": 2552,
      "效": 2553,
      "敏": 2554,
      "救": 2555,
      "敕": 2556,
      "教": 2557,
      "散": 2558,
      "敦": 2559,
      "數": 2560,
      "文": 2561,
      "斌": 2562,
      "斤": 2563,
      "断": 2564,
      "斯": 2565,
      "新": 2566,
      "方": 2567,
      "於": 2568,
      "施": 2569,
      "旅": 2570,
      "族": 2571,
      "旗": 2572,
      "无": 2573,
      "日": 2574,
      "旭": 2575,
      "时": 2576,
      "旻": 2577,
      "昆": 2578,
      "昌": 2579,
      "明": 2580,
      "昜": 2581,
      "星": 2582,
      "映": 2583,
      "春": 2584,
      "昧": 2585,
      "昭": 2586,
      "是": 2587,
      "显": 2588,
      "時": 2589,
      "晉": 2590,
      "晏": 2591,
      "晨": 2592,
      "普": 2593,
      "晶": 2594,
      "智": 2595,
      "曄": 2596,
      "曇": 2597,
      "曲": 2598,
      "更": 2599,
      "書": 2600,
      "曹": 2601,
      "曼": 2602,
      "曾": 2603,
      "替": 2604,
      "最": 2605,
      "會": 2606,
      "月": 2607,
      "有": 2608,
      "朋": 2609,
      "朗": 2610,
      "望": 2611,
      "朝": 2612,
      "木": 2613,
      "未": 2614,
      "末": 2615,
      "本": 2616,
      "札": 2617,
      "术": 2618,
      "朱": 2619,
      "朴": 2620,
      "机": 2621,
      "杉": 2622,
      "李": 2623,
      "杏": 2624,
      "材": 2625,
      "村": 2626,
      "杜": 2627,
      "条": 2628,
      "来": 2629,
      "杨": 2630,
      "杭": 2631,
      "東": 2632,
      "杷": 2633,
      "松": 2634,
      "板": 2635,
      "极": 2636,
      "枇": 2637,
      "林": 2638,
      "枚": 2639,
      "果": 2640,
      "枝": 2641,
      "枳": 2642,
      "柄": 2643,
      "柔": 2644,
      "柬": 2645,
      "柯": 2646,
      "柱": 2647,
      "柳": 2648,
      "柿": 2649,
      "栄": 2650,
      "树": 2651,
      "栗": 2652,
      "校": 2653,
      "株": 2654,
      "根": 2655,
      "格": 2656,
      "栽": 2657,
      "桂": 2658,
      "桃": 2659,
      "案": 2660,
      "桑": 2661,
      "桓": 2662,
      "桜": 2663,
      "桥": 2664,
      "桶": 2665,
      "桿": 2666,
      "梁": 2667,
      "梆": 2668,
      "條": 2669,
      "梦": 2670,
      "械": 2671,
      "梶": 2672,
      "棋": 2673,
      "棘": 2674,
      "棚": 2675,
      "森": 2676,
      "椅": 2677,
      "椒": 2678,
      "検": 2679,
      "椰": 2680,
      "楊": 2681,
      "楚": 2682,
      "楞": 2683,
      "業": 2684,
      "楮": 2685,
      "極": 2686,
      "楼": 2687,
      "楽": 2688,
      "榆": 2689,
      "槐": 2690,
      "槓": 2691,
      "樂": 2692,
      "横": 2693,
      "樱": 2694,
      "樹": 2695,
      "樺": 2696,
      "橋": 2697,
      "機": 2698,
      "檀": 2699,
      "檔": 2700,
      "權": 2701,
      "次": 2702,
      "歌": 2703,
      "止": 2704,
      "正": 2705,
      "步": 2706,
      "武": 2707,
      "歩": 2708,
      "歲": 2709,
      "歸": 2710,
      "死": 2711,
      "殉": 2712,
      "殊": 2713,
      "残": 2714,
      "殿": 2715,
      "毅": 2716,
      "母": 2717,
      "毒": 2718,
      "比": 2719,
      "毘": 2720,
      "毛": 2721,
      "毫": 2722,
      "氏": 2723,
      "民": 2724,
      "气": 2725,
      "気": 2726,
      "氣": 2727,
      "水": 2728,
      "氷": 2729,
      "永": 2730,
      "汉": 2731,
      "汗": 2732,
      "江": 2733,
      "池": 2734,
      "汨": 2735,
      "汶": 2736,
      "決": 2737,
      "沃": 2738,
      "沈": 2739,
      "沖": 2740,
      "沙": 2741,
      "沢": 2742,
      "沧": 2743,
      "沪": 2744,
      "河": 2745,
      "沸": 2746,
      "油": 2747,
      "治": 2748,
      "泉": 2749,
      "泊": 2750,
      "法": 2751,
      "波": 2752,
      "泰": 2753,
      "泽": 2754,
      "洋": 2755,
      "洗": 2756,
      "洛": 2757,
      "洞": 2758,
      "津": 2759,
      "洪": 2760,
      "洱": 2761,
      "洲": 2762,
      "活": 2763,
      "派": 2764,
      "流": 2765,
      "浄": 2766,
      "浅": 2767,
      "济": 2768,
      "浓": 2769,
      "浙": 2770,
      "浜": 2771,
      "浦": 2772,
      "浪": 2773,
      "浮": 2774,
      "海": 2775,
      "涛": 2776,
      "润": 2777,
      "液": 2778,
      "淑": 2779,
      "淘": 2780,
      "淡": 2781,
      "深": 2782,
      "清": 2783,
      "済": 2784,
      "渋": 2785,
      "渓": 2786,
      "渕": 2787,
      "渠": 2788,
      "渡": 2789,
      "渤": 2790,
      "温": 2791,
      "渭": 2792,
      "港": 2793,
      "渾": 2794,
      "湄": 2795,
      "湖": 2796,
      "湘": 2797,
      "湯": 2798,
      "湾": 2799,
      "源": 2800,
      "準": 2801,
      "溝": 2802,
      "溢": 2803,
      "溪": 2804,
      "溫": 2805,
      "滌": 2806,
      "滑": 2807,
      "滕": 2808,
      "滝": 2809,
      "满": 2810,
      "滨": 2811,
      "滴": 2812,
      "滿": 2813,
      "漆": 2814,
      "漓": 2815,
      "漢": 2816,
      "漫": 2817,
      "漿": 2818,
      "潤": 2819,
      "潭": 2820,
      "澄": 2821,
      "澜": 2822,
      "澤": 2823,
      "澳": 2824,
      "濃": 2825,
      "濤": 2826,
      "瀬": 2827,
      "灣": 2828,
      "火": 2829,
      "灯": 2830,
      "灵": 2831,
      "灸": 2832,
      "灼": 2833,
      "災": 2834,
      "炎": 2835,
      "炭": 2836,
      "点": 2837,
      "為": 2838,
      "烈": 2839,
      "烏": 2840,
      "烟": 2841,
      "焉": 2842,
      "焚": 2843,
      "無": 2844,
      "然": 2845,
      "煉": 2846,
      "煌": 2847,
      "照": 2848,
      "熄": 2849,
      "熙": 2850,
      "熟": 2851,
      "熱": 2852,
      "燈": 2853,
      "燊": 2854,
      "燒": 2855,
      "燕": 2856,
      "爆": 2857,
      "爐": 2858,
      "爭": 2859,
      "爱": 2860,
      "父": 2861,
      "爸": 2862,
      "爾": 2863,
      "片": 2864,
      "版": 2865,
      "牌": 2866,
      "牙": 2867,
      "牛": 2868,
      "牟": 2869,
      "物": 2870,
      "特": 2871,
      "犬": 2872,
      "犯": 2873,
      "状": 2874,
      "狗": 2875,
      "独": 2876,
      "狮": 2877,
      "猜": 2878,
      "猪": 2879,
      "猫": 2880,
      "猴": 2881,
      "獄": 2882,
      "獅": 2883,
      "獞": 2884,
      "獣": 2885,
      "玄": 2886,
      "率": 2887,
      "玉": 2888,
      "王": 2889,
      "玛": 2890,
      "环": 2891,
      "现": 2892,
      "玲": 2893,
      "珍": 2894,
      "珞": 2895,
      "珠": 2896,
      "班": 2897,
      "現": 2898,
      "球": 2899,
      "理": 2900,
      "琉": 2901,
      "琛": 2902,
      "琵": 2903,
      "琶": 2904,
      "瑜": 2905,
      "瑞": 2906,
      "瑟": 2907,
      "瑠": 2908,
      "瑩": 2909,
      "瑪": 2910,
      "璃": 2911,
      "璠": 2912,
      "瓜": 2913,
      "瓶": 2914,
      "甘": 2915,
      "甜": 2916,
      "生": 2917,
      "產": 2918,
      "産": 2919,
      "用": 2920,
      "甫": 2921,
      "田": 2922,
      "由": 2923,
      "甲": 2924,
      "申": 2925,
      "电": 2926,
      "男": 2927,
      "町": 2928,
      "画": 2929,
      "界": 2930,
      "畜": 2931,
      "畝": 2932,
      "略": 2933,
      "畦": 2934,
      "番": 2935,
      "異": 2936,
      "畲": 2937,
      "畿": 2938,
      "疆": 2939,
      "疑": 2940,
      "疾": 2941,
      "病": 2942,
      "症": 2943,
      "癘": 2944,
      "登": 2945,
      "發": 2946,
      "白": 2947,
      "百": 2948,
      "皃": 2949,
      "的": 2950,
      "皇": 2951,
      "皖": 2952,
      "皮": 2953,
      "盆": 2954,
      "益": 2955,
      "监": 2956,
      "盘": 2957,
      "盛": 2958,
      "盟": 2959,
      "盧": 2960,
      "目": 2961,
      "直": 2962,
      "相": 2963,
      "省": 2964,
      "眉": 2965,
      "県": 2966,
      "真": 2967,
      "眾": 2968,
      "督": 2969,
      "睿": 2970,
      "瞳": 2971,
      "瞿": 2972,
      "矢": 2973,
      "知": 2974,
      "短": 2975,
      "石": 2976,
      "砂": 2977,
      "研": 2978,
      "破": 2979,
      "碧": 2980,
      "磁": 2981,
      "磨": 2982,
      "礁": 2983,
      "示": 2984,
      "礼": 2985,
      "社": 2986,
      "祁": 2987,
      "祐": 2988,
      "祖": 2989,
      "祝": 2990,
      "神": 2991,
      "祠": 2992,
      "祥": 2993,
      "祭": 2994,
      "祺": 2995,
      "祿": 2996,
      "禅": 2997,
      "福": 2998,
      "禪": 2999,
      "禮": 3000,
      "禰": 3001,
      "禿": 3002,
      "秀": 3003,
      "私": 3004,
      "秋": 3005,
      "科": 3006,
      "秘": 3007,
      "秦": 3008,
      "移": 3009,
      "程": 3010,
      "稚": 3011,
      "種": 3012,
      "穆": 3013,
      "穗": 3014,
      "穴": 3015,
      "究": 3016,
      "空": 3017,
      "突": 3018,
      "窓": 3019,
      "竈": 3020,
      "立": 3021,
      "竖": 3022,
      "竜": 3023,
      "章": 3024,
      "童": 3025,
      "端": 3026,
      "競": 3027,
      "竹": 3028,
      "竺": 3029,
      "笏": 3030,
      "笛": 3031,
      "符": 3032,
      "第": 3033,
      "等": 3034,
      "筑": 3035,
      "策": 3036,
      "简": 3037,
      "算": 3038,
      "管": 3039,
      "箭": 3040,
      "箱": 3041,
      "節": 3042,
      "篠": 3043,
      "篪": 3044,
      "簡": 3045,
      "簫": 3046,
      "簾": 3047,
      "簿": 3048,
      "籠": 3049,
      "米": 3050,
      "粁": 3051,
      "粉": 3052,
      "粤": 3053,
      "粵": 3054,
      "精": 3055,
      "糎": 3056,
      "糯": 3057,
      "系": 3058,
      "糾": 3059,
      "紀": 3060,
      "約": 3061,
      "紅": 3062,
      "納": 3063,
      "純": 3064,
      "紗": 3065,
      "級": 3066,
      "紛": 3067,
      "素": 3068,
      "索": 3069,
      "紫": 3070,
      "累": 3071,
      "細": 3072,
      "紹": 3073,
      "組": 3074,
      "絆": 3075,
      "経": 3076,
      "結": 3077,
      "給": 3078,
      "統": 3079,
      "絲": 3080,
      "絵": 3081,
      "經": 3082,
      "綜": 3083,
      "維": 3084,
      "網": 3085,
      "緊": 3086,
      "総": 3087,
      "緑": 3088,
      "線": 3089,
      "緬": 3090,
      "縣": 3091,
      "繁": 3092,
      "織": 3093,
      "繼": 3094,
      "續": 3095,
      "红": 3096,
      "约": 3097,
      "级": 3098,
      "纪": 3099,
      "纳": 3100,
      "线": 3101,
      "组": 3102,
      "细": 3103,
      "织": 3104,
      "经": 3105,
      "统": 3106,
      "维": 3107,
      "绿": 3108,
      "缽": 3109,
      "罔": 3110,
      "罗": 3111,
      "署": 3112,
      "罵": 3113,
      "羅": 3114,
      "羊": 3115,
      "羌": 3116,
      "美": 3117,
      "羡": 3118,
      "群": 3119,
      "義": 3120,
      "羽": 3121,
      "翁": 3122,
      "習": 3123,
      "耀": 3124,
      "老": 3125,
      "考": 3126,
      "者": 3127,
      "耆": 3128,
      "而": 3129,
      "耕": 3130,
      "耶": 3131,
      "耻": 3132,
      "联": 3133,
      "聖": 3134,
      "聞": 3135,
      "聪": 3136,
      "聯": 3137,
      "肃": 3138,
      "肇": 3139,
      "肉": 3140,
      "股": 3141,
      "肥": 3142,
      "育": 3143,
      "胎": 3144,
      "胖": 3145,
      "胡": 3146,
      "胶": 3147,
      "能": 3148,
      "脉": 3149,
      "脏": 3150,
      "腑": 3151,
      "腹": 3152,
      "腺": 3153,
      "腻": 3154,
      "腾": 3155,
      "膏": 3156,
      "臂": 3157,
      "臣": 3158,
      "臧": 3159,
      "臨": 3160,
      "自": 3161,
      "臺": 3162,
      "舉": 3163,
      "舊": 3164,
      "舜": 3165,
      "舞": 3166,
      "舟": 3167,
      "航": 3168,
      "般": 3169,
      "船": 3170,
      "良": 3171,
      "色": 3172,
      "艺": 3173,
      "节": 3174,
      "芝": 3175,
      "芥": 3176,
      "芭": 3177,
      "花": 3178,
      "芳": 3179,
      "芸": 3180,
      "芽": 3181,
      "苏": 3182,
      "苗": 3183,
      "若": 3184,
      "苦": 3185,
      "英": 3186,
      "苹": 3187,
      "范": 3188,
      "茶": 3189,
      "荆": 3190,
      "草": 3191,
      "荜": 3192,
      "荣": 3193,
      "药": 3194,
      "荼": 3195,
      "莉": 3196,
      "莊": 3197,
      "莎": 3198,
      "莫": 3199,
      "莱": 3200,
      "莽": 3201,
      "菊": 3202,
      "菜": 3203,
      "菠": 3204,
      "菩": 3205,
      "華": 3206,
      "菰": 3207,
      "菱": 3208,
      "营": 3209,
      "萧": 3210,
      "萨": 3211,
      "萬": 3212,
      "落": 3213,
      "葉": 3214,
      "葛": 3215,
      "葬": 3216,
      "葵": 3217,
      "蒋": 3218,
      "蒙": 3219,
      "蒲": 3220,
      "蒸": 3221,
      "蓖": 3222,
      "蓝": 3223,
      "蓮": 3224,
      "蔡": 3225,
      "蔵": 3226,
      "蕎": 3227,
      "蕭": 3228,
      "薄": 3229,
      "薩": 3230,
      "薬": 3231,
      "藏": 3232,
      "藤": 3233,
      "藩": 3234,
      "蘇": 3235,
      "蘭": 3236,
      "蘿": 3237,
      "虎": 3238,
      "處": 3239,
      "虛": 3240,
      "虹": 3241,
      "蛇": 3242,
      "蛙": 3243,
      "蜀": 3244,
      "蜃": 3245,
      "蜊": 3246,
      "蜜": 3247,
      "蝶": 3248,
      "融": 3249,
      "螣": 3250,
      "螺": 3251,
      "蠡": 3252,
      "血": 3253,
      "衆": 3254,
      "行": 3255,
      "術": 3256,
      "衙": 3257,
      "衛": 3258,
      "衣": 3259,
      "表": 3260,
      "衫": 3261,
      "衽": 3262,
      "袁": 3263,
      "袍": 3264,
      "被": 3265,
      "袴": 3266,
      "袵": 3267,
      "裁": 3268,
      "裂": 3269,
      "裈": 3270,
      "裏": 3271,
      "裕": 3272,
      "補": 3273,
      "裝": 3274,
      "裴": 3275,
      "製": 3276,
      "褶": 3277,
      "褾": 3278,
      "襠": 3279,
      "襲": 3280,
      "襴": 3281,
      "西": 3282,
      "要": 3283,
      "見": 3284,
      "視": 3285,
      "覚": 3286,
      "覧": 3287,
      "親": 3288,
      "観": 3289,
      "覺": 3290,
      "觀": 3291,
      "视": 3292,
      "觉": 3293,
      "角": 3294,
      "解": 3295,
      "訂": 3296,
      "計": 3297,
      "訓": 3298,
      "記": 3299,
      "訥": 3300,
      "設": 3301,
      "許": 3302,
      "訳": 3303,
      "訶": 3304,
      "診": 3305,
      "証": 3306,
      "詔": 3307,
      "試": 3308,
      "話": 3309,
      "誕": 3310,
      "語": 3311,
      "誠": 3312,
      "說": 3313,
      "説": 3314,
      "読": 3315,
      "調": 3316,
      "談": 3317,
      "論": 3318,
      "諭": 3319,
      "諸": 3320,
      "諾": 3321,
      "謀": 3322,
      "謎": 3323,
      "謝": 3324,
      "譚": 3325,
      "譜": 3326,
      "警": 3327,
      "議": 3328,
      "護": 3329,
      "讓": 3330,
      "讖": 3331,
      "训": 3332,
      "议": 3333,
      "记": 3334,
      "讲": 3335,
      "论": 3336,
      "访": 3337,
      "诃": 3338,
      "诗": 3339,
      "诚": 3340,
      "话": 3341,
      "诞": 3342,
      "语": 3343,
      "说": 3344,
      "诸": 3345,
      "谈": 3346,
      "谜": 3347,
      "谢": 3348,
      "谱": 3349,
      "谷": 3350,
      "豆": 3351,
      "豊": 3352,
      "象": 3353,
      "豫": 3354,
      "豬": 3355,
      "貝": 3356,
      "貞": 3357,
      "財": 3358,
      "貨": 3359,
      "販": 3360,
      "貫": 3361,
      "貴": 3362,
      "買": 3363,
      "資": 3364,
      "賓": 3365,
      "賞": 3366,
      "賡": 3367,
      "賢": 3368,
      "賣": 3369,
      "質": 3370,
      "贔": 3371,
      "贛": 3372,
      "贝": 3373,
      "贡": 3374,
      "贵": 3375,
      "费": 3376,
      "赋": 3377,
      "赛": 3378,
      "赣": 3379,
      "赤": 3380,
      "赫": 3381,
      "走": 3382,
      "赴": 3383,
      "赵": 3384,
      "起": 3385,
      "超": 3386,
      "越": 3387,
      "趙": 3388,
      "足": 3389,
      "跃": 3390,
      "跋": 3391,
      "距": 3392,
      "跡": 3393,
      "路": 3394,
      "践": 3395,
      "踊": 3396,
      "身": 3397,
      "車": 3398,
      "軌": 3399,
      "軍": 3400,
      "軒": 3401,
      "転": 3402,
      "輩": 3403,
      "輪": 3404,
      "车": 3405,
      "软": 3406,
      "轲": 3407,
      "辦": 3408,
      "辭": 3409,
      "辮": 3410,
      "辯": 3411,
      "辰": 3412,
      "農": 3413,
      "辻": 3414,
      "込": 3415,
      "辽": 3416,
      "达": 3417,
      "迅": 3418,
      "运": 3419,
      "近": 3420,
      "返": 3421,
      "进": 3422,
      "远": 3423,
      "连": 3424,
      "迦": 3425,
      "迷": 3426,
      "追": 3427,
      "退": 3428,
      "送": 3429,
      "逃": 3430,
      "逆": 3431,
      "透": 3432,
      "通": 3433,
      "逢": 3434,
      "連": 3435,
      "週": 3436,
      "進": 3437,
      "逵": 3438,
      "逸": 3439,
      "遊": 3440,
      "運": 3441,
      "遍": 3442,
      "過": 3443,
      "道": 3444,
      "達": 3445,
      "遠": 3446,
      "選": 3447,
      "遺": 3448,
      "遼": 3449,
      "還": 3450,
      "邊": 3451,
      "邏": 3452,
      "邑": 3453,
      "那": 3454,
      "邪": 3455,
      "郎": 3456,
      "郑": 3457,
      "郞": 3458,
      "郡": 3459,
      "郢": 3460,
      "部": 3461,
      "郭": 3462,
      "都": 3463,
      "鄂": 3464,
      "鄭": 3465,
      "鄰": 3466,
      "鄱": 3467,
      "酉": 3468,
      "配": 3469,
      "酒": 3470,
      "酢": 3471,
      "采": 3472,
      "里": 3473,
      "重": 3474,
      "野": 3475,
      "量": 3476,
      "金": 3477,
      "針": 3478,
      "釦": 3479,
      "鈕": 3480,
      "鈴": 3481,
      "鉉": 3482,
      "鉑": 3483,
      "鉴": 3484,
      "銀": 3485,
      "銅": 3486,
      "銖": 3487,
      "銘": 3488,
      "錆": 3489,
      "錢": 3490,
      "錦": 3491,
      "録": 3492,
      "鍾": 3493,
      "鎖": 3494,
      "鎬": 3495,
      "鎮": 3496,
      "鎹": 3497,
      "鐵": 3498,
      "鑫": 3499,
      "鑾": 3500,
      "针": 3501,
      "钓": 3502,
      "钦": 3503,
      "钱": 3504,
      "铜": 3505,
      "银": 3506,
      "错": 3507,
      "锡": 3508,
      "锦": 3509,
      "镇": 3510,
      "镜": 3511,
      "長": 3512,
      "长": 3513,
      "門": 3514,
      "開": 3515,
      "間": 3516,
      "関": 3517,
      "閣": 3518,
      "閦": 3519,
      "閩": 3520,
      "闇": 3521,
      "闍": 3522,
      "闘": 3523,
      "關": 3524,
      "门": 3525,
      "闪": 3526,
      "问": 3527,
      "间": 3528,
      "闽": 3529,
      "阀": 3530,
      "阎": 3531,
      "阜": 3532,
      "阝": 3533,
      "阪": 3534,
      "防": 3535,
      "阳": 3536,
      "阶": 3537,
      "阿": 3538,
      "陀": 3539,
      "附": 3540,
      "际": 3541,
      "陈": 3542,
      "限": 3543,
      "陕": 3544,
      "陡": 3545,
      "院": 3546,
      "陰": 3547,
      "陳": 3548,
      "陸": 3549,
      "険": 3550,
      "陽": 3551,
      "隆": 3552,
      "隊": 3553,
      "隋": 3554,
      "階": 3555,
      "際": 3556,
      "隠": 3557,
      "隧": 3558,
      "隶": 3559,
      "隸": 3560,
      "雀": 3561,
      "雄": 3562,
      "集": 3563,
      "雖": 3564,
      "雙": 3565,
      "雞": 3566,
      "離": 3567,
      "難": 3568,
      "雨": 3569,
      "雪": 3570,
      "零": 3571,
      "雷": 3572,
      "電": 3573,
      "震": 3574,
      "霑": 3575,
      "霞": 3576,
      "露": 3577,
      "青": 3578,
      "静": 3579,
      "非": 3580,
      "面": 3581,
      "革": 3582,
      "鞅": 3583,
      "鞮": 3584,
      "韓": 3585,
      "韩": 3586,
      "音": 3587,
      "韶": 3588,
      "頁": 3589,
      "頂": 3590,
      "順": 3591,
      "頓": 3592,
      "領": 3593,
      "頤": 3594,
      "頭": 3595,
      "題": 3596,
      "顏": 3597,
      "顔": 3598,
      "類": 3599,
      "顯": 3600,
      "顶": 3601,
      "项": 3602,
      "顺": 3603,
      "顿": 3604,
      "领": 3605,
      "颐": 3606,
      "频": 3607,
      "题": 3608,
      "風": 3609,
      "风": 3610,
      "飛": 3611,
      "飞": 3612,
      "食": 3613,
      "飯": 3614,
      "飽": 3615,
      "餅": 3616,
      "餐": 3617,
      "館": 3618,
      "馆": 3619,
      "首": 3620,
      "香": 3621,
      "馬": 3622,
      "駐": 3623,
      "騎": 3624,
      "験": 3625,
      "騰": 3626,
      "騷": 3627,
      "马": 3628,
      "驻": 3629,
      "骂": 3630,
      "骄": 3631,
      "骑": 3632,
      "骨": 3633,
      "髀": 3634,
      "髄": 3635,
      "體": 3636,
      "高": 3637,
      "髮": 3638,
      "鬆": 3639,
      "鬼": 3640,
      "魁": 3641,
      "魂": 3642,
      "魄": 3643,
      "魅": 3644,
      "魏": 3645,
      "魔": 3646,
      "魯": 3647,
      "鮮": 3648,
      "鯖": 3649,
      "鰯": 3650,
      "鰺": 3651,
      "鱗": 3652,
      "鱲": 3653,
      "鱼": 3654,
      "鲁": 3655,
      "鲜": 3656,
      "鲲": 3657,
      "鳥": 3658,
      "鳳": 3659,
      "鳴": 3660,
      "鴉": 3661,
      "鴻": 3662,
      "鵝": 3663,
      "鶯": 3664,
      "鶻": 3665,
      "鸡": 3666,
      "鸣": 3667,
      "鸪": 3668,
      "鸭": 3669,
      "鹏": 3670,
      "鹤": 3671,
      "鹧": 3672,
      "麗": 3673,
      "麦": 3674,
      "麪": 3675,
      "麵": 3676,
      "麺": 3677,
      "麻": 3678,
      "麼": 3679,
      "麿": 3680,
      "黃": 3681,
      "黄": 3682,
      "黎": 3683,
      "黑": 3684,
      "黒": 3685,
      "默": 3686,
      "點": 3687,
      "黨": 3688,
      "鼓": 3689,
      "鼠": 3690,
      "鼻": 3691,
      "齊": 3692,
      "齐": 3693,
      "齡": 3694,
      "龄": 3695,
      "龍": 3696,
      "龙": 3697,
      "龜": 3698,
      "ꁱ": 3699,
      "ꂷ": 3700,
      "ꆈ": 3701,
      "ꌠ": 3702,
      "ꜜ": 3703,
      "ꜣ": 3704,
      "ꠁ": 3705,
      "ꠇ": 3706,
      "ꠈ": 3707,
      "ꠉ": 3708,
      "ꠌ": 3709,
      "ꠍ": 3710,
      "ꠐ": 3711,
      "ꠘ": 3712,
      "ꠛ": 3713,
      "ꠝ": 3714,
      "ꠞ": 3715,
      "ꠟ": 3716,
      "ꠠ": 3717,
      "ꡃ": 3718,
      "ꡊ": 3719,
      "ꡋ": 3720,
      "ꡌ": 3721,
      "ꡏ": 3722,
      "ꡜ": 3723,
      "ꡝ": 3724,
      "ꡞ": 3725,
      "ꡟ": 3726,
      "ꡠ": 3727,
      "ꡡ": 3728,
      "ꣳ": 3729,
      "ꦗ": 3730,
      "ꦧ": 3731,
      "ꦮ": 3732,
      "ꦱ": 3733,
      "ꫢ": 3734,
      "ꫣ": 3735,
      "ꫤ": 3736,
      "ꫥ": 3737,
      "ꫦ": 3738,
      "ꫧ": 3739,
      "ꫨ": 3740,
      "ꫩ": 3741,
      "ꫪ": 3742,
      "꫰": 3743,
      "ꯀ": 3744,
      "ꯁ": 3745,
      "ꯂ": 3746,
      "ꯃ": 3747,
      "ꯄ": 3748,
      "ꯅ": 3749,
      "ꯇ": 3750,
      "ꯈ": 3751,
      "ꯉ": 3752,
      "ꯊ": 3753,
      "ꯋ": 3754,
      "ꯌ": 3755,
      "ꯍ": 3756,
      "ꯏ": 3757,
      "ꯐ": 3758,
      "ꯑ": 3759,
      "ꯒ": 3760,
      "ꯔ": 3761,
      "ꯕ": 3762,
      "ꯗ": 3763,
      "ꯚ": 3764,
      "ꯛ": 3765,
      "ꯜ": 3766,
      "ꯝ": 3767,
      "ꯞ": 3768,
      "ꯟ": 3769,
      "ꯠ": 3770,
      "ꯡ": 3771,
      "ꯢ": 3772,
      "": 3773,
      "": 3774,
      "": 3775,
      "": 3776,
      "": 3777,
      "": 3778,
      "": 3779,
      "": 3780,
      "": 3781,
      "": 3782,
      "": 3783,
      "": 3784,
      "": 3785,
      "ﬁ": 3786,
      "ﭼ": 3787,
      "ﮓ": 3788,
      "ﮕ": 3789,
      "ﮨ": 3790,
      "ﮩ": 3791,
      "ﮭ": 3792,
      "ﯩ": 3793,
      "ﯼ": 3794,
      "﴿": 3795,
      "ﷲ": 3796,
      "ﷺ": 3797,
      "ﺃ": 3798,
      "ﺋ": 3799,
      "ﺍ": 3800,
      "ﺎ": 3801,
      "ﺏ": 3802,
      "ﺑ": 3803,
      "ﺓ": 3804,
      "ﺔ": 3805,
      "ﺘ": 3806,
      "ﺟ": 3807,
      "ﺠ": 3808,
      "ﺣ": 3809,
      "ﺤ": 3810,
      "ﺩ": 3811,
      "ﺪ": 3812,
      "ﺭ": 3813,
      "ﺮ": 3814,
      "ﺯ": 3815,
      "ﺰ": 3816,
      "ﺳ": 3817,
      "ﺴ": 3818,
      "ﻀ": 3819,
      "ﻄ": 3820,
      "ﻌ": 3821,
      "ﻗ": 3822,
      "ﻙ": 3823,
      "ﻜ": 3824,
      "ﻟ": 3825,
      "ﻠ": 3826,
      "ﻣ": 3827,
      "ﻤ": 3828,
      "ﻦ": 3829,
      "ﻨ": 3830,
      "ﻬ": 3831,
      "ﻭ": 3832,
      "ﻮ": 3833,
      "ﻱ": 3834,
      "ﻲ": 3835,
      "ﻴ": 3836,
      "ﻹ": 3837,
      "ﻼ": 3838,
      "﻿": 3839,
      "！": 3840,
      "（": 3841,
      "）": 3842,
      "，": 3843,
      "－": 3844,
      "．": 3845,
      "／": 3846,
      "：": 3847,
      "？": 3848,
      "～": 3849,
      "ﾠ": 3850,
      "￡": 3851,
      "￣": 3852,
      "￥": 3853,
      "￱": 3854,
      "￳": 3855,
      "￷": 3856,
      "￸": 3857,
      "￼": 3858,
      "�": 3859,
      "𐎠": 3860,
      "𐎡": 3861,
      "𐎢": 3862,
      "𐎫": 3863,
      "𐎯": 3864,
      "𐎱": 3865,
      "𐎺": 3866,
      "𐎼": 3867,
      "𐎿": 3868,
      "𐏁": 3869,
      "𐏃": 3870,
      "𐡀": 3871,
      "𐡅": 3872,
      "𐡌": 3873,
      "𐡕": 3874,
      "𐤀": 3875,
      "𐤁": 3876,
      "𐤂": 3877,
      "𐤇": 3878,
      "𐤉": 3879,
      "𐤋": 3880,
      "𐤌": 3881,
      "𐤍": 3882,
      "𐤏": 3883,
      "𐤒": 3884,
      "𐤓": 3885,
      "𐤕": 3886,
      "𐤟": 3887,
      "𐨐": 3888,
      "𐨞": 3889,
      "𐨮": 3890,
      "𐩖": 3891,
      "𐭃": 3892,
      "𐭊": 3893,
      "𐭌": 3894,
      "𐭓": 3895,
      "𐭕": 3896,
      "𐭤": 3897,
      "𐭦": 3898,
      "𐭩": 3899,
      "𐭫": 3900,
      "𑀅": 3901,
      "𑀢": 3902,
      "𑀣": 3903,
      "𑀤": 3904,
      "𑀥": 3905,
      "𑀦": 3906,
      "𑀪": 3907,
      "𑀭": 3908,
      "𑀯": 3909,
      "𑂃": 3910,
      "𑂄": 3911,
      "𑂅": 3912,
      "𑂆": 3913,
      "𑂉": 3914,
      "𑂍": 3915,
      "𑂎": 3916,
      "𑂏": 3917,
      "𑂑": 3918,
      "𑂒": 3919,
      "𑂔": 3920,
      "𑂘": 3921,
      "𑂙": 3922,
      "𑂛": 3923,
      "𑂝": 3924,
      "𑂞": 3925,
      "𑂟": 3926,
      "𑂠": 3927,
      "𑂡": 3928,
      "𑂢": 3929,
      "𑂣": 3930,
      "𑂥": 3931,
      "𑂦": 3932,
      "𑂧": 3933,
      "𑂨": 3934,
      "𑂩": 3935,
      "𑂪": 3936,
      "𑂬": 3937,
      "𑂭": 3938,
      "𑂮": 3939,
      "𑂯": 3940,
      "𑃀": 3941,
      "𑃁": 3942,
      "𑄇": 3943,
      "𑋀": 3944,
      "𑋆": 3945,
      "𑋈": 3946,
      "𑋌": 3947,
      "𑋙": 3948,
      "𑐒": 3949,
      "𑐟": 3950,
      "𑐥": 3951,
      "𑐮": 3952,
      "𑐴": 3953,
      "𑖟": 3954,
      "𑖠": 3955,
      "𑖭": 3956,
      "𑜀": 3957,
      "𑜂": 3958,
      "𑜃": 3959,
      "𑜇": 3960,
      "𑜍": 3961,
      "𑜏": 3962,
      "𑴂": 3963,
      "𑴨": 3964,
      "𑴫": 3965,
      "𑵄": 3966,
      "𒂍": 3967,
      "𒅍": 3968,
      "𒅎": 3969,
      "𒆠": 3970,
      "𒉌": 3971,
      "𒋼": 3972,
      "𒌇": 3973,
      "𓂧": 3974,
      "𓇌": 3975,
      "𓈖": 3976,
      "𓉔": 3977,
      "𓍯": 3978,
      "𝐀": 3979,
      "𝐁": 3980,
      "𝐄": 3981,
      "𝐅": 3982,
      "𝐇": 3983,
      "𝐈": 3984,
      "𝐋": 3985,
      "𝐌": 3986,
      "𝐍": 3987,
      "𝐎": 3988,
      "𝐏": 3989,
      "𝐑": 3990,
      "𝐒": 3991,
      "𝐓": 3992,
      "𝐔": 3993,
      "𝐚": 3994,
      "𝐛": 3995,
      "𝐜": 3996,
      "𝐝": 3997,
      "𝐞": 3998,
      "𝐟": 3999,
      "𝐡": 4000,
      "𝐢": 4001,
      "𝐥": 4002,
      "𝐦": 4003,
      "𝐧": 4004,
      "𝐨": 4005,
      "𝐩": 4006,
      "𝐫": 4007,
      "𝐬": 4008,
      "𝐭": 4009,
      "𝐰": 4010,
      "𝐳": 4011,
      "𝑩": 4012,
      "𝑪": 4013,
      "𝑳": 4014,
      "𝒅": 4015,
      "𝒊": 4016,
      "𝒏": 4017,
      "𝛍": 4018,
      "𝜙": 4019,
      "𝝳": 4020,
      "🇮": 4021,
      "🇳": 4022,
      "🌉": 4023,
      "🌍": 4024,
      "🌎": 4025,
      "🌏": 4026,
      "🌑": 4027,
      "🌟": 4028,
      "🌱": 4029,
      "🌴": 4030,
      "🌹": 4031,
      "🌺": 4032,
      "🍁": 4033,
      "🎂": 4034,
      "🎵": 4035,
      "🎶": 4036,
      "🏏": 4037,
      "🏞": 4038,
      "🏠": 4039,
      "🏻": 4040,
      "🏼": 4041,
      "🐖": 4042,
      "🐛": 4043,
      "🐜": 4044,
      "🐝": 4045,
      "🐷": 4046,
      "🐸": 4047,
      "👇": 4048,
      "👉": 4049,
      "👌": 4050,
      "👍": 4051,
      "👑": 4052,
      "👥": 4053,
      "💃": 4054,
      "💎": 4055,
      "💐": 4056,
      "💖": 4057,
      "💚": 4058,
      "💜": 4059,
      "💟": 4060,
      "💥": 4061,
      "💪": 4062,
      "💯": 4063,
      "💸": 4064,
      "📝": 4065,
      "📲": 4066,
      "🔘": 4067,
      "🔥": 4068,
      "🔫": 4069,
      "🔹": 4070,
      "🔺": 4071,
      "🕉": 4072,
      "🗼": 4073,
      "😁": 4074,
      "😂": 4075,
      "😃": 4076,
      "😄": 4077,
      "😅": 4078,
      "😌": 4079,
      "😍": 4080,
      "😎": 4081,
      "😶": 4082,
      "🙂": 4083,
      "🙏": 4084,
      "🚆": 4085,
      "🚘": 4086,
      "🚢": 4087,
      "🚩": 4088,
      "🜨": 4089,
      "🤗": 4090,
      "🤝": 4091,
      "🤟": 4092,
      "🤦": 4093,
      "🥀": 4094,
      "🥜": 4095,
      "🥰": 4096,
      "🦂": 4097,
      "🧬": 4098,
      "𠺗": 4099,
      "𡄣": 4100,
      "𡬷": 4101,
      "𡱩": 4102,
      "पर": 4103,
      "कर": 4104,
      "तर": 4105,
      "और": 4106,
      "वर": 4107,
      "सम": 4108,
      "एक": 4109,
      "दर": 4110,
      "सक": 4111,
      "जन": 4112,
      "सर": 4113,
      "सथ": 4114,
      "कष": 4115,
      "गर": 4116,
      "हत": 4117,
      "मन": 4118,
      "कय": 4119,
      "पन": 4120,
      "टर": 4121,
      "रत": 4122,
      "सन": 4123,
      "बर": 4124,
      "हर": 4125,
      "कल": 4126,
      "हन": 4127,
      "सत": 4128,
      "जत": 4129,
      "मल": 4130,
      "कत": 4131,
      "नय": 4132,
      "लए": 4133,
      "उन": 4134,
      "इस": 4135,
      "गय": 4136,
      "मर": 4137,
      "यह": 4138,
      "बद": 4139,
      "लग": 4140,
      "रज": 4141,
      "वल": 4142,
      "पत": 4143,
      "दय": 4144,
      "रप": 4145,
      "जल": 4146,
      "वय": 4147,
      "वश": 4148,
      "भरत": 4149,
      "दश": 4150,
      "20": 4151,
      "हल": 4152,
      "शर": 4153,
      "करन": 4154,
      "19": 4155,
      "बन": 4156,
      "लय": 4157,
      "दन": 4158,
      "अन": 4159,
      "उत": 4160,
      "कन": 4161,
      "इन": 4162,
      "करत": 4163,
      "धर": 4164,
      "वन": 4165,
      "चन": 4166,
      "सल": 4167,
      "फल": 4168,
      "अपन": 4169,
      "नर": 4170,
      "सट": 4171,
      "तय": 4172,
      "तक": 4173,
      "कम": 4174,
      "सव": 4175,
      "चर": 4176,
      "गल": 4177,
      "बल": 4178,
      "कस": 4179,
      "अध": 4180,
      "यन": 4181,
      "दवर": 4182,
      "फर": 4183,
      "शन": 4184,
      "धन": 4185,
      "वह": 4186,
      "णड": 4187,
      "पल": 4188,
      "उततर": 4189,
      "करय": 4190,
      "गत": 4191,
      "यग": 4192,
      "नम": 4193,
      "डय": 4194,
      "परत": 4195,
      "वत": 4196,
      "कट": 4197,
      "जर": 4198,
      "नह": 4199,
      "सद": 4200,
      "रह": 4201,
      "सकत": 4202,
      "जस": 4203,
      "करण": 4204,
      "खय": 4205,
      "उनक": 4206,
      "मत": 4207,
      "सय": 4208,
      "सब": 4209,
      "भग": 4210,
      "इसक": 4211,
      "मक": 4212,
      "खल": 4213,
      "an": 4214,
      "उप": 4215,
      "in": 4216,
      "रजय": 4217,
      "दख": 4218,
      "तथ": 4219,
      "वद": 4220,
      "बहर": 4221,
      "टन": 4222,
      "दरभ": 4223,
      "यर": 4224,
      "परण": 4225,
      "कश": 4226,
      "सह": 4227,
      "दव": 4228,
      "लख": 4229,
      "रष": 4230,
      "er": 4231,
      "चल": 4232,
      "वज": 4233,
      "सभ": 4234,
      "धय": 4235,
      "कई": 4236,
      "कषण": 4237,
      "कषतर": 4238,
      "पहल": 4239,
      "परम": 4240,
      "तन": 4241,
      "सस": 4242,
      "परय": 4243,
      "फलम": 4244,
      "सथत": 4245,
      "on": 4246,
      "गव": 4247,
      "जब": 4248,
      "तह": 4249,
      "नत": 4250,
      "200": 4251,
      "सनदरभ": 4252,
      "उस": 4253,
      "सतर": 4254,
      "लक": 4255,
      "भष": 4256,
      "मह": 4257,
      "हए": 4258,
      "ar": 4259,
      "अर": 4260,
      "खणड": 4261,
      "पक": 4262,
      "परव": 4263,
      "भरतय": 4264,
      "रषटर": 4265,
      "or": 4266,
      "al": 4267,
      "टल": 4268,
      "सरकर": 4269,
      "at": 4270,
      "हआ": 4271,
      "लन": 4272,
      "उनहन": 4273,
      "एव": 4274,
      "बड": 4275,
      "परदश": 4276,
      "पड": 4277,
      "अभ": 4278,
      "पद": 4279,
      "उततरखणड": 4280,
      "बच": 4281,
      "डर": 4282,
      "जय": 4283,
      "पस": 4284,
      "रख": 4285,
      "उसक": 4286,
      "कछ": 4287,
      "th": 4288,
      "201": 4289,
      "समय": 4290,
      "तत": 4291,
      "करम": 4292,
      "करक": 4293,
      "सथन": 4294,
      "पश": 4295,
      "वशव": 4296,
      "मतर": 4297,
      "आर": 4298,
      "वरष": 4299,
      "en": 4300,
      "अनय": 4301,
      "अल": 4302,
      "सटर": 4303,
      "कह": 4304,
      "जनम": 4305,
      "00": 4306,
      "हम": 4307,
      "कडय": 4308,
      "es": 4309,
      "टक": 4310,
      "नगर": 4311,
      "धत": 4312,
      "परस": 4313,
      "दल": 4314,
      "अधक": 4315,
      "आध": 4316,
      "वदय": 4317,
      "चत": 4318,
      "भर": 4319,
      "),": 4320,
      "ic": 4321,
      "षट": 4322,
      "नन": 4323,
      "इनह": 4324,
      "दत": 4325,
      "अतर": 4326,
      "यद": 4327,
      "is": 4328,
      "गई": 4329,
      "ञन": 4330,
      "सबस": 4331,
      "गए": 4332,
      "अमर": 4333,
      "रषटरय": 4334,
      "आत": 4335,
      "डल": 4336,
      "गन": 4337,
      "मखय": 4338,
      "उनह": 4339,
      "शल": 4340,
      "वक": 4341,
      "शत": 4342,
      "बस": 4343,
      "इट": 4344,
      "वसत": 4345,
      "पतर": 4346,
      "मधय": 4347,
      "हई": 4348,
      "१९": 4349,
      "मण": 4350,
      "परभ": 4351,
      "मदर": 4352,
      "सहत": 4353,
      "लड": 4354,
      "रल": 4355,
      "पह": 4356,
      "लकन": 4357,
      "गण": 4358,
      "रम": 4359,
      "शमल": 4360,
      "वरण": 4361,
      "सखय": 4362,
      "परपत": 4363,
      "परकर": 4364,
      "जसक": 4365,
      "आय": 4366,
      "18": 4367,
      "बहत": 4368,
      "वशष": 4369,
      "मस": 4370,
      "हनद": 4371,
      "डन": 4372,
      "२०": 4373,
      "मद": 4374,
      "आद": 4375,
      "अगर": 4376,
      "चम": 4377,
      "सतन": 4378,
      "सग": 4379,
      "रग": 4380,
      "आई": 4381,
      "परवर": 4382,
      "बध": 4383,
      "अव": 4384,
      "दसर": 4385,
      "शहर": 4386,
      "वयकत": 4387,
      "षण": 4388,
      "199": 4389,
      "it": 4390,
      "नद": 4391,
      "शकष": 4392,
      "अमरक": 4393,
      "चक": 4394,
      "नव": 4395,
      "ion": 4396,
      "परट": 4397,
      "वजञन": 4398,
      "रस": 4399,
      "यत": 4400,
      "जसम": 4401,
      "उपयग": 4402,
      "आधर": 4403,
      "वयव": 4404,
      "तहसल": 4405,
      "le": 4406,
      "बज": 4407,
      "वभ": 4408,
      "as": 4409,
      "ऐस": 4410,
      "अत": 4411,
      "पय": 4412,
      "जक": 4413,
      "महत": 4414,
      "re": 4415,
      "जवन": 4416,
      "उद": 4417,
      "आधकरक": 4418,
      "मणड": 4419,
      "ऑफ": 4420,
      "of": 4421,
      "खर": 4422,
      "सच": 4423,
      "लम": 4424,
      "समन": 4425,
      "the": 4426,
      "एस": 4427,
      "जह": 4428,
      "ch": 4429,
      "तरक": 4430,
      "बत": 4431,
      "दकषण": 4432,
      "शय": 4433,
      "मणडल": 4434,
      "तरह": 4435,
      "रजन": 4436,
      "कड": 4437,
      "टम": 4438,
      "परमख": 4439,
      "बढ": 4440,
      "समर": 4441,
      "बह": 4442,
      "जड": 4443,
      "महल": 4444,
      "ro": 4445,
      "षठ": 4446,
      "पट": 4447,
      "घर": 4448,
      "खन": 4449,
      "फट": 4450,
      "परतय": 4451,
      "तव": 4452,
      "परयग": 4453,
      "रहत": 4454,
      "गरह": 4455,
      "लल": 4456,
      "वरत": 4457,
      "बक": 4458,
      "षय": 4459,
      "co": 4460,
      "जम": 4461,
      "अनसर": 4462,
      "अरथ": 4463,
      "दरन": 4464,
      "सरव": 4465,
      "वदयलय": 4466,
      "रन": 4467,
      "चछ": 4468,
      "अधय": 4469,
      "धरम": 4470,
      "दरशन": 4471,
      "परथ": 4472,
      "छट": 4473,
      "परक": 4474,
      "st": 4475,
      "तल": 4476,
      "अक": 4477,
      "सहतय": 4478,
      "हद": 4479,
      "ed": 4480,
      "शबद": 4481,
      "नरमण": 4482,
      "बगल": 4483,
      "इतह": 4484,
      "अलग": 4485,
      "जञ": 4486,
      "परश": 4487,
      "इतहस": 4488,
      "बट": 4489,
      "वड": 4490,
      "am": 4491,
      "चतर": 4492,
      "हलक": 4493,
      "पच": 4494,
      "and": 4495,
      "आन": 4496,
      "कवल": 4497,
      "एल": 4498,
      "टरन": 4499,
      "रक": 4500,
      "पथ": 4501,
      "ठन": 4502,
      "सप": 4503,
      "198": 4504,
      "परसकर": 4505,
      "मज": 4506,
      "ओर": 4507,
      "मटर": 4508,
      "10": 4509,
      "गढ": 4510,
      "वकस": 4511,
      "यक": 4512,
      "महर": 4513,
      "अनतर": 4514,
      "वस": 4515,
      "इल": 4516,
      "कलन": 4517,
      "लगभग": 4518,
      "अगरज": 4519,
      "तब": 4520,
      "सदसय": 4521,
      "गरम": 4522,
      "तरत": 4523,
      "पशचम": 4524,
      "चच": 4525,
      "रय": 4526,
      "महन": 4527,
      "एन": 4528,
      "एम": 4529,
      "सदध": 4530,
      "इड": 4531,
      "बदध": 4532,
      "अब": 4533,
      "भव": 4534,
      "परकश": 4535,
      "जव": 4536,
      "सगत": 4537,
      "जनक": 4538,
      "कए": 4539,
      "दस": 4540,
      "यदध": 4541,
      "परष": 4542,
      "सथल": 4543,
      "सवर": 4544,
      "करकट": 4545,
      "अपर": 4546,
      "वध": 4547,
      "ing": 4548,
      "मच": 4549,
      "थन": 4550,
      "गज": 4551,
      "इनक": 4552,
      "us": 4553,
      "चलत": 4554,
      "मट": 4555,
      "हग": 4556,
      "un": 4557,
      "मड": 4558,
      "समह": 4559,
      "कमर": 4560,
      "बनन": 4561,
      "15": 4562,
      "दशक": 4563,
      "गह": 4564,
      "सघ": 4565,
      "ur": 4566,
      "मलत": 4567,
      "तम": 4568,
      "सकल": 4569,
      "एड": 4570,
      "बनय": 4571,
      "दध": 4572,
      "परमण": 4573,
      "197": 4574,
      "घट": 4575,
      "कभ": 4576,
      "पकष": 4577,
      "कहत": 4578,
      "मरग": 4579,
      "कयक": 4580,
      "करड": 4581,
      "el": 4582,
      "घटन": 4583,
      "इसम": 4584,
      "महतव": 4585,
      "खड": 4586,
      "17": 4587,
      "ir": 4588,
      "समत": 4589,
      "मग": 4590,
      "लत": 4591,
      "सकष": 4592,
      "सवत": 4593,
      "कदर": 4594,
      "यकत": 4595,
      "वभनन": 4596,
      "ac": 4597,
      "शसतर": 4598,
      "दयग": 4599,
      "यतर": 4600,
      "शकत": 4601,
      "शक": 4602,
      "आग": 4603,
      "बरट": 4604,
      "परथम": 4605,
      "ent": 4606,
      "वशववदयलय": 4607,
      "वट": 4608,
      "शवर": 4609,
      "मय": 4610,
      "वधन": 4611,
      "कपन": 4612,
      "ation": 4613,
      "अग": 4614,
      "जए": 4615,
      "il": 4616,
      "iv": 4617,
      "दम": 4618,
      "डक": 4619,
      "आवश": 4620,
      "पछ": 4621,
      "पलस": 4622,
      "196": 4623,
      "ससकत": 4624,
      "अनतरगत": 4625,
      "सपत": 4626,
      "दलल": 4627,
      "सगर": 4628,
      "पकसतन": 4629,
      "ad": 4630,
      "जनवर": 4631,
      "कप": 4632,
      "नट": 4633,
      "बई": 4634,
      "वरग": 4635,
      "मनत": 4636,
      "ol": 4637,
      "गड": 4638,
      "अधकर": 4639,
      "कहन": 4640,
      "धरण": 4641,
      "सयकत": 4642,
      "परभव": 4643,
      "16": 4644,
      "नकल": 4645,
      "12": 4646,
      "जनसखय": 4647,
      "पसत": 4648,
      "सबध": 4649,
      "कथ": 4650,
      "वतत": 4651,
      "आकर": 4652,
      "वचर": 4653,
      "परदन": 4654,
      "सथपत": 4655,
      "आज": 4656,
      "मलय": 4657,
      "हसस": 4658,
      "बदल": 4659,
      "कनन": 4660,
      "परर": 4661,
      "जनकर": 4662,
      "परसदध": 4663,
      "ag": 4664,
      "नल": 4665,
      "वधय": 4666,
      "मरच": 4667,
      "कषत": 4668,
      "मडल": 4669,
      "समझ": 4670,
      "de": 4671,
      "पठ": 4672,
      "सथपन": 4673,
      "टट": 4674,
      "हथ": 4675,
      "वबस": 4676,
      "जबक": 4677,
      "हव": 4678,
      "बलक": 4679,
      "मलन": 4680,
      "वरतमन": 4681,
      "कफ": 4682,
      "पषठ": 4683,
      "यस": 4684,
      "दशय": 4685,
      "शरआत": 4686,
      "गम": 4687,
      "सवय": 4688,
      "भम": 4689,
      "वबसइट": 4690,
      "तरण": 4691,
      "भमक": 4692,
      "समनय": 4693,
      "शह": 4694,
      "थर": 4695,
      "उल": 4696,
      "सपर": 4697,
      "शरण": 4698,
      "अतररषटरय": 4699,
      "पज": 4700,
      "et": 4701,
      "मधयम": 4702,
      "००": 4703,
      "भगल": 4704,
      "हरण": 4705,
      "वभग": 4706,
      "195": 4707,
      "उपन": 4708,
      "बय": 4709,
      "परटल": 4710,
      "मरत": 4711,
      "सटशन": 4712,
      "परसत": 4713,
      "बरहम": 4714,
      "नमक": 4715,
      "महतवपरण": 4716,
      "समज": 4717,
      "शव": 4718,
      "14": 4719,
      "सफल": 4720,
      "लगत": 4721,
      "फन": 4722,
      "to": 4723,
      "सकर": 4724,
      "नयम": 4725,
      "ap": 4726,
      "ig": 4727,
      "कमऊ": 4728,
      "चहए": 4729,
      "२०१": 4730,
      "कव": 4731,
      "रड": 4732,
      "सध": 4733,
      "पण": 4734,
      "सरत": 4735,
      "अधययन": 4736,
      "बग": 4737,
      "थक": 4738,
      "बम": 4739,
      "पनन": 4740,
      "आम": 4741,
      "दरश": 4742,
      "उपल": 4743,
      "13": 4744,
      "चनव": 4745,
      "उचच": 4746,
      "वसतत": 4747,
      "षक": 4748,
      "खलफ": 4749,
      "सरय": 4750,
      "भत": 4751,
      "परचन": 4752,
      "मसल": 4753,
      "खत": 4754,
      "21": 4755,
      "चकत": 4756,
      "मतय": 4757,
      "यण": 4758,
      "..": 4759,
      "वशल": 4760,
      "रचन": 4761,
      "भई": 4762,
      "अनक": 4763,
      "नई": 4764,
      "लट": 4765,
      "पसतक": 4766,
      "धक": 4767,
      "डज": 4768,
      "भवन": 4769,
      "tr": 4770,
      "000": 4771,
      "चलन": 4772,
      "अपरल": 4773,
      "दवप": 4774,
      "फरक": 4775,
      "नरमत": 4776,
      "अकट": 4777,
      "भज": 4778,
      "उसन": 4779,
      "अकटबर": 4780,
      "छड": 4781,
      "जसस": 4782,
      "जलई": 4783,
      "नयय": 4784,
      "नमन": 4785,
      "लकर": 4786,
      "पडत": 4787,
      "नरव": 4788,
      "रव": 4789,
      "di": 4790,
      "बचच": 4791,
      "नक": 4792,
      "पदन": 4793,
      "वषय": 4794,
      "कलज": 4795,
      "वजन": 4796,
      "बब": 4797,
      "सदरभ": 4798,
      "194": 4799,
      "समजक": 4800,
      "सफ": 4801,
      "यरप": 4802,
      "सथय": 4803,
      "ममल": 4804,
      "चरण": 4805,
      "30": 4806,
      "चरय": 4807,
      "पहच": 4808,
      "उदहरण": 4809,
      "अचछ": 4810,
      "परकत": 4811,
      "फरस": 4812,
      "दनय": 4813,
      "जयद": 4814,
      "परन": 4815,
      "हट": 4816,
      "पतन": 4817,
      "तमक": 4818,
      "पहचन": 4819,
      "em": 4820,
      "२००": 4821,
      "गरस": 4822,
      "लब": 4823,
      "मई": 4824,
      "बरड": 4825,
      "पढ": 4826,
      "यम": 4827,
      "परदरशन": 4828,
      "जवत": 4829,
      "22": 4830,
      "तयत": 4831,
      "शसन": 4832,
      "इसत": 4833,
      "इसलए": 4834,
      "अलव": 4835,
      "जनत": 4836,
      "करयकरम": 4837,
      "गढवल": 4838,
      "im": 4839,
      "जद": 4840,
      "बरटश": 4841,
      "लस": 4842,
      "जतय": 4843,
      "डस": 4844,
      "सनक": 4845,
      "वयवसथ": 4846,
      "खद": 4847,
      "इसस": 4848,
      "उपलबध": 4849,
      "ter": 4850,
      "ab": 4851,
      "धनक": 4852,
      "पदर": 4853,
      "ul": 4854,
      "शरखल": 4855,
      "तज": 4856,
      "यजन": 4857,
      "मनव": 4858,
      "परतयक": 4859,
      "मम": 4860,
      "परकशत": 4861,
      "लभ": 4862,
      "टव": 4863,
      "हकर": 4864,
      "रजनतक": 4865,
      "ct": 4866,
      "for": 4867,
      "अप": 4868,
      "भक": 4869,
      "25": 4870,
      "शकर": 4871,
      "सधन": 4872,
      "शरम": 4873,
      "मदद": 4874,
      "शद": 4875,
      "आधरत": 4876,
      "com": 4877,
      "बजर": 4878,
      "परकरय": 4879,
      "ऑसटर": 4880,
      "एफ": 4881,
      "ht": 4882,
      "सख": 4883,
      "11": 4884,
      "शतबद": 4885,
      "एशय": 4886,
      "id": 4887,
      "नथ": 4888,
      "लखक": 4889,
      "अथ": 4890,
      "वजञनक": 4891,
      "इलक": 4892,
      "परधन": 4893,
      "परणल": 4894,
      "जञन": 4895,
      "सगठन": 4896,
      "गद": 4897,
      "खलड": 4898,
      "अरब": 4899,
      "लखत": 4900,
      "lo": 4901,
      "रहन": 4902,
      "बलय": 4903,
      "कलकर": 4904,
      "लगन": 4905,
      "डड": 4906,
      "लखन": 4907,
      "दषट": 4908,
      "ससथन": 4909,
      "ईस": 4910,
      "गलड": 4911,
      "अथव": 4912,
      "um": 4913,
      "एकस": 4914,
      "भगवन": 4915,
      "इसतमल": 4916,
      "छतर": 4917,
      "ऊपर": 4918,
      "बनत": 4919,
      "रजनत": 4920,
      "टय": 4921,
      "शरर": 4922,
      ")।": 4923,
      "टस": 4924,
      "परवत": 4925,
      "ut": 4926,
      "आल": 4927,
      "वरध": 4928,
      "तयर": 4929,
      "वण": 4930,
      "सतबर": 4931,
      "परणम": 4932,
      "१८": 4933,
      "कनक": 4934,
      "लकष": 4935,
      "कनदर": 4936,
      "वसतर": 4937,
      "रलव": 4938,
      "पप": 4939,
      "गग": 4940,
      "मख": 4941,
      "इजन": 4942,
      "जलपषठ": 4943,
      "धयन": 4944,
      "वकसत": 4945,
      "ममद": 4946,
      "रजसथन": 4947,
      "अफरक": 4948,
      "शख": 4949,
      "नतर": 4950,
      "परवरतन": 4951,
      "जरमन": 4952,
      "डट": 4953,
      "अधकश": 4954,
      "परनत": 4955,
      "ससकरण": 4956,
      "इसलम": 4957,
      "आदरश": 4958,
      "अगसत": 4959,
      "23": 4960,
      "आधनक": 4961,
      "एच": 4962,
      "उदय": 4963,
      "sp": 4964,
      "अवध": 4965,
      "सदर": 4966,
      "||": 4967,
      "उललख": 4968,
      "50": 4969,
      "ससथ": 4970,
      "कवय": 4971,
      "ort": 4972,
      "परयजन": 4973,
      "चय": 4974,
      "गस": 4975,
      "ऊच": 4976,
      "ऑसटरलय": 4977,
      "पदक": 4978,
      "तसर": 4979,
      "तप": 4980,
      "नए": 4981,
      "अभनत": 4982,
      "णय": 4983,
      "नश": 4984,
      "वकल": 4985,
      "परयस": 4986,
      "दयगक": 4987,
      "नच": 4988,
      "बधन": 4989,
      "we": 4990,
      "दसत": 4991,
      "परसर": 4992,
      "मगल": 4993,
      "गरथ": 4994,
      "सबधत": 4995,
      "गजरत": 4996,
      "मकत": 4997,
      "जगह": 4998,
      "आवशयकत": 4999,
      "वधयक": 5000,
      "परमणक": 5001,
      "फरवर": 5002,
      "se": 5003,
      "टसट": 5004,
      "सपन": 5005,
      "रखन": 5006,
      "उड": 5007,
      "अकसर": 5008,
      "परवश": 5009,
      "भल": 5010,
      "अतरकत": 5011,
      "लह": 5012,
      "समपत": 5013,
      "नरदश": 5014,
      "लकपरय": 5015,
      "यल": 5016,
      "दष": 5017,
      "2008": 5018,
      "रण": 5019,
      "गध": 5020,
      "सदधत": 5021,
      "रद": 5022,
      "हमल": 5023,
      "नमट": 5024,
      "कगरस": 5025,
      "सरकष": 5026,
      "om": 5027,
      "वयपर": 5028,
      "उतपनन": 5029,
      "उतपदन": 5030,
      "नतय": 5031,
      "बगलदश": 5032,
      "ph": 5033,
      "वमन": 5034,
      "यतयत": 5035,
      "सटन": 5036,
      "चकतस": 5037,
      "पजब": 5038,
      "24": 5039,
      "सनय": 5040,
      "वधनसभ": 5041,
      "बनध": 5042,
      "दवतय": 5043,
      "वयवसय": 5044,
      "सथनय": 5045,
      "करग": 5046,
      "इक": 5047,
      "भकत": 5048,
      "शनल": 5049,
      "ay": 5050,
      "उट": 5051,
      "समदय": 5052,
      "ers": 5053,
      "2007": 5054,
      "जनसखयक": 5055,
      "वयवहर": 5056,
      "आप": 5057,
      "गरफ": 5058,
      "जपन": 5059,
      "परशन": 5060,
      "तलन": 5061,
      "नज": 5062,
      "परतन": 5063,
      "दए": 5064,
      "जग": 5065,
      "छतत": 5066,
      "te": 5067,
      "av": 5068,
      "ce": 5069,
      "समरजय": 5070,
      "करमण": 5071,
      "रकत": 5072,
      "अतम": 5073,
      "मनय": 5074,
      "कषमत": 5075,
      "षत": 5076,
      "पलन": 5077,
      "वदश": 5078,
      "--": 5079,
      "ठक": 5080,
      "आनधर": 5081,
      "2009": 5082,
      "सगढ": 5083,
      "ia": 5084,
      "उददशय": 5085,
      "आरथक": 5086,
      "मजद": 5087,
      "ist": 5088,
      "पतत": 5089,
      "रखत": 5090,
      "मदन": 5091,
      "नरवचन": 5092,
      "समदर": 5093,
      "ससक": 5094,
      "पयर": 5095,
      "जएग": 5096,
      "छततसगढ": 5097,
      "वपस": 5098,
      "सवध": 5099,
      "वशषट": 5100,
      "मनक": 5101,
      "193": 5102,
      "ive": 5103,
      "षटर": 5104,
      "मबर": 5105,
      "वषण": 5106,
      "टइ": 5107,
      "रजधन": 5108,
      "नधन": 5109,
      "कवत": 5110,
      "सहयत": 5111,
      "सरवश": 5112,
      "वदध": 5113,
      "खज": 5114,
      "port": 5115,
      "सपषट": 5116,
      "शप": 5117,
      "करबन": 5118,
      "मशन": 5119,
      "दखन": 5120,
      "सरज": 5121,
      "sh": 5122,
      "ne": 5123,
      "पदरथ": 5124,
      "करल": 5125,
      "रषटरपत": 5126,
      "धरत": 5127,
      "ससद": 5128,
      "जञत": 5129,
      "वरक": 5130,
      "mo": 5131,
      "नग": 5132,
      "महममद": 5133,
      "वयर": 5134,
      "आस": 5135,
      "नपल": 5136,
      "घषण": 5137,
      "फसल": 5138,
      "रकष": 5139,
      "वरड": 5140,
      "2019": 5141,
      "तकनक": 5142,
      "गणन": 5143,
      "con": 5144,
      "सममनत": 5145,
      "वजय": 5146,
      "समगर": 5147,
      "मश": 5148,
      "कपर": 5149,
      "तहसक": 5150,
      "सचन": 5151,
      "परकष": 5152,
      "जमन": 5153,
      "पटर": 5154,
      "चकर": 5155,
      "रकरड": 5156,
      "हय": 5157,
      "उदयग": 5158,
      "बतय": 5159,
      "air": 5160,
      "समसय": 5161,
      "हमर": 5162,
      "टलवजन": 5163,
      "हजर": 5164,
      "वष": 5165,
      "सधर": 5166,
      "जसन": 5167,
      "सरवशरष": 5168,
      "धरमक": 5169,
      "2018": 5170,
      "कण": 5171,
      "pr": 5172,
      "परभवत": 5173,
      "दसबर": 5174,
      "।\"": 5175,
      "सरवशरषठ": 5176,
      "आबद": 5177,
      "आमतर": 5178,
      "सगरह": 5179,
      "सतय": 5180,
      "ऐतहसक": 5181,
      "इगलड": 5182,
      "यगय": 5183,
      "2006": 5184,
      "इनम": 5185,
      "जनहन": 5186,
      "तहत": 5187,
      "परसतत": 5188,
      "शसक": 5189,
      "उतपद": 5190,
      "अकदम": 5191,
      "मलक": 5192,
      "मध": 5193,
      "चदर": 5194,
      "चट": 5195,
      "परषद": 5196,
      "एयर": 5197,
      "टप": 5198,
      ").": 5199,
      "सनन": 5200,
      "ववह": 5201,
      "so": 5202,
      "उमर": 5203,
      "पटन": 5204,
      "26": 5205,
      "दरशत": 5206,
      "कलमटर": 5207,
      "ak": 5208,
      "टग": 5209,
      "वरणन": 5210,
      "गपत": 5211,
      "परयटन": 5212,
      "भजन": 5213,
      "2010": 5214,
      "सवरप": 5215,
      "झल": 5216,
      "परकषण": 5217,
      "पथव": 5218,
      "नटक": 5219,
      "ततर": 5220,
      "मइ": 5221,
      "सममन": 5222,
      "सजन": 5223,
      "बनए": 5224,
      "भनन": 5225,
      "जनह": 5226,
      "ang": 5227,
      "सवसथय": 5228,
      "इनहन": 5229,
      "अनवद": 5230,
      "फरम": 5231,
      "ip": 5232,
      "अतय": 5233,
      "रमन": 5234,
      "चहत": 5235,
      "समकष": 5236,
      "डजइन": 5237,
      "28": 5238,
      "वनय": 5239,
      "आवशयक": 5240,
      "तमल": 5241,
      "लप": 5242,
      "रथ": 5243,
      "अगल": 5244,
      "दखत": 5245,
      "समरथन": 5246,
      "इटर": 5247,
      "अकष": 5248,
      "रच": 5249,
      "हसत": 5250,
      "og": 5251,
      "करयर": 5252,
      "आयजत": 5253,
      "टड": 5254,
      "सज": 5255,
      "दवत": 5256,
      "उपनयस": 5257,
      "जट": 5258,
      "दरज": 5259,
      "नवस": 5260,
      "दखई": 5261,
      "रसयन": 5262,
      "फस": 5263,
      "नकट": 5264,
      "27": 5265,
      "सवततरत": 5266,
      "अधयकष": 5267,
      "tp": 5268,
      "दग": 5269,
      "भतर": 5270,
      "हवई": 5271,
      "नयकत": 5272,
      "पलट": 5273,
      "करस": 5274,
      "40": 5275,
      "महलओ": 5276,
      "qu": 5277,
      "नततव": 5278,
      "डगर": 5279,
      "मनन": 5280,
      "मनदर": 5281,
      "चरच": 5282,
      "pro": 5283,
      "रध": 5284,
      "नयतरण": 5285,
      "१९९": 5286,
      "कनर": 5287,
      "यव": 5288,
      "सरचन": 5289,
      "op": 5290,
      "web": 5291,
      "wi": 5292,
      "फयर": 5293,
      "वयपक": 5294,
      "इय": 5295,
      "सवकर": 5296,
      "पररभक": 5297,
      "वशषत": 5298,
      "सरवजनक": 5299,
      "मसलम": 5300,
      "इडय": 5301,
      "शम": 5302,
      "बढत": 5303,
      "=\"": 5304,
      "आयर": 5305,
      "ससकतक": 5306,
      "नष": 5307,
      "ककष": 5308,
      "कशमर": 5309,
      "अभनतर": 5310,
      "महरषटर": 5311,
      "//": 5312,
      "bo": 5313,
      "अरथत": 5314,
      "सतत": 5315,
      "मलयन": 5316,
      "हड": 5317,
      "कलकत": 5318,
      "आरम": 5319,
      "उपकरण": 5320,
      "उठ": 5321,
      "फक": 5322,
      "http": 5323,
      "बहन": 5324,
      "फरड": 5325,
      "जतन": 5326,
      "ऊरज": 5327,
      "भषण": 5328,
      "2005": 5329,
      "चद": 5330,
      "एकसपरस": 5331,
      "ra": 5332,
      "एट": 5333,
      "सवम": 5334,
      "://": 5335,
      "ine": 5336,
      "चड": 5337,
      "सहयक": 5338,
      "लइन": 5339,
      "सटक": 5340,
      "ततव": 5341,
      "पयन": 5342,
      "करब": 5343,
      "अनसधन": 5344,
      "मडय": 5345,
      "ci": 5346,
      "सकषम": 5347,
      "सडक": 5348,
      "भतक": 5349,
      "वदवन": 5350,
      "पयटर": 5351,
      "महरज": 5352,
      "art": 5353,
      "2014": 5354,
      "हइ": 5355,
      "वसतव": 5356,
      "परतयगत": 5357,
      "दब": 5358,
      "अफ": 5359,
      "भषओ": 5360,
      "कलब": 5361,
      "टरक": 5362,
      "हक": 5363,
      "सवधन": 5364,
      "29": 5365,
      "परकतक": 5366,
      "इटरन": 5367,
      "2016": 5368,
      "आदलन": 5369,
      "कठ": 5370,
      "सधरण": 5371,
      "मबई": 5372,
      "पए": 5373,
      "इतन": 5374,
      "2011": 5375,
      "शयर": 5376,
      "2017": 5377,
      "आनद": 5378,
      "आपक": 5379,
      "पशचत": 5380,
      "वडय": 5381,
      "सफलत": 5382,
      "ववद": 5383,
      "नवबर": 5384,
      "वग": 5385,
      "वदयत": 5386,
      "बकस": 5387,
      "सझ": 5388,
      "मनयत": 5389,
      "airport": 5390,
      "टरनमट": 5391,
      "गरड": 5392,
      "आतम": 5393,
      "हस": 5394,
      "सवद": 5395,
      "हसल": 5396,
      "वशवस": 5397,
      "पनर": 5398,
      "पव": 5399,
      "सहयग": 5400,
      "समबर": 5401,
      "१५": 5402,
      "मलकर": 5403,
      "रलज": 5404,
      "2000": 5405,
      "\",": 5406,
      "वलय": 5407,
      "चरतर": 5408,
      "100": 5409,
      "li": 5410,
      "अभनय": 5411,
      "परपर": 5412,
      "परयकत": 5413,
      "अनत": 5414,
      "कलपन": 5415,
      "वहक": 5416,
      "दवस": 5417,
      "वदर": 5418,
      "नरदशक": 5419,
      "तथय": 5420,
      "परबधन": 5421,
      "no": 5422,
      "फइन": 5423,
      "वहन": 5424,
      "घन": 5425,
      "वजत": 5426,
      "सटम": 5427,
      "थल": 5428,
      "po": 5429,
      "लगय": 5430,
      "खयत": 5431,
      "ww": 5432,
      "वव": 5433,
      "ओल": 5434,
      "मनषय": 5435,
      "तरफ": 5436,
      "गठ": 5437,
      "समबनध": 5438,
      "जनन": 5439,
      "परदयगक": 5440,
      "हलत": 5441,
      "कनत": 5442,
      "दसमबर": 5443,
      "सवन": 5444,
      "अनभव": 5445,
      "परकशन": 5446,
      "धकर": 5447,
      "तट": 5448,
      "नगरक": 5449,
      "आए": 5450,
      "१०": 5451,
      "बरग": 5452,
      "अभयन": 5453,
      "ess": 5454,
      "कक": 5455,
      "अनमत": 5456,
      "गरहण": 5457,
      "भद": 5458,
      "मसर": 5459,
      "अश": 5460,
      "2004": 5461,
      "मरठ": 5462,
      "खतर": 5463,
      "indi": 5464,
      "गगल": 5465,
      "2012": 5466,
      "पहड": 5467,
      "लइ": 5468,
      "2020": 5469,
      "सकट": 5470,
      "2021": 5471,
      "मनट": 5472,
      "man": 5473,
      "परसद": 5474,
      "लर": 5475,
      "ity": 5476,
      "शध": 5477,
      "पतरक": 5478,
      "बकर": 5479,
      "सइ": 5480,
      "सवततर": 5481,
      "कवर": 5482,
      "उपसथत": 5483,
      "मखयलय": 5484,
      "वयकतगत": 5485,
      "बरटन": 5486,
      "बरन": 5487,
      "कनड": 5488,
      "जगर": 5489,
      "सकरय": 5490,
      "ub": 5491,
      "चनल": 5492,
      "हतय": 5493,
      "सरकषत": 5494,
      "|-": 5495,
      "चथ": 5496,
      "परभष": 5497,
      "कग": 5498,
      "गरनथ": 5499,
      "इजनयर": 5500,
      "करट": 5501,
      "ish": 5502,
      "अहम": 5503,
      "लज": 5504,
      "१७": 5505,
      "१९८": 5506,
      "पदम": 5507,
      "यरपय": 5508,
      "by": 5509,
      "पछल": 5510,
      "भय": 5511,
      "रश": 5512,
      "जच": 5513,
      "60": 5514,
      "यगदन": 5515,
      "खलन": 5516,
      "परतशत": 5517,
      "असम": 5518,
      "अतरगत": 5519,
      "लकषण": 5520,
      "190": 5521,
      "शरत": 5522,
      "ign": 5523,
      "arch": 5524,
      "pl": 5525,
      "कबज": 5526,
      "टरस": 5527,
      "org": 5528,
      "कशक": 5529,
      "नरणय": 5530,
      "बधत": 5531,
      "मब": 5532,
      "कच": 5533,
      "गहर": 5534,
      "समझत": 5535,
      "परचर": 5536,
      "बढन": 5537,
      "2013": 5538,
      "असत": 5539,
      "अडड": 5540,
      "कतय": 5541,
      "नटवरक": 5542,
      "ii": 5543,
      "उसस": 5544,
      "सटडय": 5545,
      "बचन": 5546,
      "2015": 5547,
      "नस": 5548,
      "वकट": 5549,
      "भगत": 5550,
      "समचर": 5551,
      "मरक": 5552,
      "हज": 5553,
      "ex": 5554,
      "डलर": 5555,
      "ant": 5556,
      "उनम": 5557,
      "अपकष": 5558,
      "ववरण": 5559,
      "गणत": 5560,
      "आठ": 5561,
      "कलक": 5562,
      "ma": 5563,
      "चनदर": 5564,
      "बतत": 5565,
      "नयन": 5566,
      "परद": 5567,
      "est": 5568,
      "अधनयम": 5569,
      "80": 5570,
      "उच": 5571,
      "इसन": 5572,
      "वजह": 5573,
      "दड": 5574,
      "बदर": 5575,
      "इज": 5576,
      "गयक": 5577,
      "आसन": 5578,
      "सहर": 5579,
      "ho": 5580,
      "वसट": 5581,
      "हलय": 5582,
      "१६": 5583,
      "all": 5584,
      "बनई": 5585,
      "शरष": 5586,
      "‍य": 5587,
      "लडक": 5588,
      "नयक": 5589,
      "समरट": 5590,
      "चहन": 5591,
      "लदन": 5592,
      "१९७": 5593,
      "मरन": 5594,
      "वजद": 5595,
      "2003": 5596,
      "जगल": 5597,
      "do": 5598,
      "पलक": 5599,
      "रडय": 5600,
      "ससर": 5601,
      "अदल": 5602,
      "लकस": 5603,
      "कसर": 5604,
      "पध": 5605,
      "नमनलखत": 5606,
      "खम": 5607,
      "अवसथ": 5608,
      "नययलय": 5609,
      "एलबम": 5610,
      "ff": 5611,
      "up": 5612,
      "एकल": 5613,
      "सघरष": 5614,
      "रजमरग": 5615,
      "नरधरत": 5616,
      "सफट": 5617,
      "कशश": 5618,
      "औसत": 5619,
      "नड": 5620,
      "यरक": 5621,
      "आसपस": 5622,
      "रतन": 5623,
      "सचर": 5624,
      "सड": 5625,
      "फइनल": 5626,
      "2002": 5627,
      "वदक": 5628,
      "दरग": 5629,
      "हसन": 5630,
      "col": 5631,
      "बरज": 5632,
      "आदश": 5633,
      "be": 5634,
      "मठ": 5635,
      "रपरट": 5636,
      "दवन": 5637,
      "शकषक": 5638,
      "आश": 5639,
      "लकषय": 5640,
      "()": 5641,
      "सचलत": 5642,
      "ver": 5643,
      "बलल": 5644,
      "जनस": 5645,
      "सहतयकर": 5646,
      "कषतरय": 5647,
      "उपचर": 5648,
      "डग": 5649,
      "age": 5650,
      "परशकषण": 5651,
      "गवर": 5652,
      "la": 5653,
      "अवसर": 5654,
      "कद": 5655,
      "नदर": 5656,
      "परदरशत": 5657,
      "वकत": 5658,
      "लयन": 5659,
      "वयत": 5660,
      "बजय": 5661,
      "वततय": 5662,
      "कमल": 5663,
      "उपजल": 5664,
      "छह": 5665,
      "2001": 5666,
      "अतत": 5667,
      "धतव": 5668,
      "परचय": 5669,
      "वसतवक": 5670,
      "ans": 5671,
      "मजर": 5672,
      "go": 5673,
      "छप": 5674,
      "१२": 5675,
      "परयवरण": 5676,
      "यगक": 5677,
      "बवजद": 5678,
      "तरथ": 5679,
      "कसन": 5680,
      "तलक": 5681,
      "एसस": 5682,
      "सभव": 5683,
      "सटट": 5684,
      "सदधन": 5685,
      "und": 5686,
      "घड": 5687,
      "नमत": 5688,
      "स‍": 5689,
      "टरय": 5690,
      "nic": 5691,
      "परतनधतव": 5692,
      "बमर": 5693,
      "br": 5694,
      "नदय": 5695,
      "ge": 5696,
      "डवड": 5697,
      "नहर": 5698,
      "दद": 5699,
      "आरप": 5700,
      "आलचन": 5701,
      "उरद": 5702,
      "आयजन": 5703,
      "फटबल": 5704,
      "फड": 5705,
      "कपयटर": 5706,
      "परफ": 5707,
      "सनम": 5708,
      "वपरत": 5709,
      "ननत": 5710,
      "इदर": 5711,
      "cr": 5712,
      "बरबर": 5713,
      "au": 5714,
      "189": 5715,
      "मप": 5716,
      "ie": 5717,
      "बहतर": 5718,
      "थड": 5719,
      "वरप": 5720,
      "अपरध": 5721,
      "सरफ": 5722,
      "ary": 5723,
      "नरयण": 5724,
      "ical": 5725,
      "gr": 5726,
      "सबत": 5727,
      "नशनल": 5728,
      ".)": 5729,
      "परतर": 5730,
      "सटल": 5731,
      "सश": 5732,
      "घरल": 5733,
      "35": 5734,
      "घटनए": 5735,
      "मझ": 5736,
      "वकष": 5737,
      "१९६": 5738,
      "वजञ": 5739,
      "ठकर": 5740,
      "जबत": 5741,
      "सवल": 5742,
      "पतथर": 5743,
      "70": 5744,
      "चयन": 5745,
      "1990": 5746,
      "भवषय": 5747,
      "कपनय": 5748,
      "परगत": 5749,
      "हसतकष": 5750,
      "परसथ": 5751,
      "ate": 5752,
      "सभवत": 5753,
      "वशलषण": 5754,
      "परशसनक": 5755,
      "इलकटरन": 5756,
      "वरम": 5757,
      "तकर": 5758,
      "ईरन": 5759,
      "बरहमण": 5760,
      "परज": 5761,
      "शष": 5762,
      "चज": 5763,
      "ऊचई": 5764,
      "कसम": 5765,
      "जलद": 5766,
      "जयत": 5767,
      "कज": 5768,
      "नजर": 5769,
      "cl": 5770,
      "सई": 5771,
      "बनद": 5772,
      "आकरमण": 5773,
      "परतकरय": 5774,
      "हरय": 5775,
      "पटट": 5776,
      "जनरल": 5777,
      "लडई": 5778,
      "अमत": 5779,
      "सचत": 5780,
      "डम": 5781,
      "षम": 5782,
      "शरषक": 5783,
      "पई": 5784,
      "आख": 5785,
      "लव": 5786,
      "ard": 5787,
      "जनगणन": 5788,
      "भड": 5789,
      "परतषठ": 5790,
      "नवश": 5791,
      "घषत": 5792,
      "नशचत": 5793,
      "गरन": 5794,
      "सलतन": 5795,
      "रसत": 5796,
      "कहलत": 5797,
      "लगतर": 5798,
      "sy": 5799,
      "गरभ": 5800,
      "करयलय": 5801,
      "करनटक": 5802,
      "कशल": 5803,
      "ऑकस": 5804,
      "गरमण": 5805,
      "हमश": 5806,
      "गरज": 5807,
      "ta": 5808,
      "दवसय": 5809,
      "वकर": 5810,
      "डबलय": 5811,
      "मसम": 5812,
      "धरवहक": 5813,
      "परकट": 5814,
      "पहन": 5815,
      "जज": 5816,
      "गठन": 5817,
      "नमकन": 5818,
      "धम": 5819,
      "1999": 5820,
      "उसम": 5821,
      "दनक": 5822,
      "यनवर": 5823,
      "इचछ": 5824,
      "सदधनत": 5825,
      "फज": 5826,
      "कबल": 5827,
      "परयपत": 5828,
      "समरह": 5829,
      "ite": 5830,
      "परपरक": 5831,
      "भषए": 5832,
      "ure": 5833,
      "सममलन": 5834,
      "अधन": 5835,
      "इम": 5836,
      "पसद": 5837,
      "जमम": 5838,
      "इमरत": 5839,
      "लघ": 5840,
      "31": 5841,
      "जररत": 5842,
      "rom": 5843,
      "सफटवयर": 5844,
      "उर": 5845,
      "धवन": 5846,
      "लहर": 5847,
      "परतक": 5848,
      "शरय": 5849,
      "खस": 5850,
      "वब": 5851,
      "du": 5852,
      "अकल": 5853,
      "परथमक": 5854,
      "१४": 5855,
      "थय": 5856,
      "मटट": 5857,
      "अनमन": 5858,
      "वनड": 5859,
      "रजवश": 5860,
      "इटड": 5861,
      "pe": 5862,
      "अफगन": 5863,
      "करतओ": 5864,
      "बलन": 5865,
      "वयकतय": 5866,
      "सवरण": 5867,
      "गलय": 5868,
      "ईसई": 5869,
      "परणमस": 5870,
      "सनत": 5871,
      "सहब": 5872,
      "45": 5873,
      "he": 5874,
      "दखय": 5875,
      "यनइटड": 5876,
      "ory": 5877,
      "गट": 5878,
      "शरलक": 5879,
      "मसलमन": 5880,
      "ससटम": 5881,
      "सपरक": 5882,
      "ib": 5883,
      "मरज": 5884,
      "उडन": 5885,
      "वदरह": 5886,
      "हदर": 5887,
      "छत": 5888,
      "कमत": 5889,
      "पहचत": 5890,
      "कठन": 5891,
      "गलत": 5892,
      "ational": 5893,
      "खबर": 5894,
      "मशर": 5895,
      "कलय": 5896,
      "1998": 5897,
      "inter": 5898,
      "परशसन": 5899,
      "कतब": 5900,
      "परणमसवरप": 5901,
      "सनतक": 5902,
      "लमब": 5903,
      "अतयधक": 5904,
      "वरदध": 5905,
      "इटल": 5906,
      "अतरकष": 5907,
      "वरलड": 5908,
      "od": 5909,
      "with": 5910,
      "चह": 5911,
      "ऑफस": 5912,
      "०००": 5913,
      "align": 5914,
      "चढ": 5915,
      "जलड": 5916,
      "सरल": 5917,
      "कमन": 5918,
      "...": 5919,
      "मसत": 5920,
      "पररत": 5921,
      "cent": 5922,
      "per": 5923,
      "सहन": 5924,
      "जकर": 5925,
      "आचरय": 5926,
      "रचत": 5927,
      "करनल": 5928,
      "बरक": 5929,
      "परसतव": 5930,
      "वभजत": 5931,
      "act": 5932,
      "wor": 5933,
      "मसटर": 5934,
      "नरभर": 5935,
      "90": 5936,
      "डरम": 5937,
      "सरकषण": 5938,
      "परधनमतर": 5939,
      "परवक": 5940,
      "अहमद": 5941,
      "सलम": 5942,
      "अदर": 5943,
      "नवन": 5944,
      "परबध": 5945,
      "इतय": 5946,
      "2022": 5947,
      "पचर": 5948,
      "पयनशप": 5949,
      "पटल": 5950,
      "खरद": 5951,
      "उललखनय": 5952,
      "गतवधय": 5953,
      "जममदर": 5954,
      "सपतल": 5955,
      "इलह": 5956,
      "फत": 5957,
      "सदश": 5958,
      "वलस": 5959,
      "आउट": 5960,
      "आनधरपरदश": 5961,
      "दरशक": 5962,
      "आगर": 5963,
      "new": 5964,
      "आकड": 5965,
      "हइडर": 5966,
      "महततव": 5967,
      "शश": 5968,
      "इतयद": 5969,
      "असपतल": 5970,
      "मतरलय": 5971,
      "इजर": 5972,
      "जखम": 5973,
      "ऋष": 5974,
      "अद": 5975,
      "ओलपक": 5976,
      "मजबत": 5977,
      "लकसभ": 5978,
      "अलमड": 5979,
      "आयग": 5980,
      "शकषण": 5981,
      "१३": 5982,
      "हउस": 5983,
      "आवज": 5984,
      "परचलत": 5985,
      "वरय": 5986,
      "शलक": 5987,
      "are": 5988,
      "पवतर": 5989,
      "1980": 5990,
      "यदय": 5991,
      "नययरक": 5992,
      "करतमक": 5993,
      "टकण": 5994,
      "रसयनक": 5995,
      "इलहबद": 5996,
      "नसर": 5997,
      "ast": 5998,
      "फरसस": 5999,
      "कषट": 6000,
      "महसगर": 6001,
      "औदयगक": 6002,
      "रट": 6003,
      "मखयत": 6004,
      "कदरय": 6005,
      "बठ": 6006,
      "वयखय": 6007,
      "सगरहलय": 6008,
      "ud": 6009,
      "sa": 6010,
      "पग": 6011,
      "ha": 6012,
      "पषट": 6013,
      "सचलन": 6014,
      "सरवधक": 6015,
      "अम": 6016,
      "ससधन": 6017,
      "कबर": 6018,
      "आईसस": 6019,
      "जयदतर": 6020,
      "हटल": 6021,
      "इडयन": 6022,
      "सतह": 6023,
      "अधकत": 6024,
      "ननद": 6025,
      "उदयन": 6026,
      "१९५": 6027,
      "गरट": 6028,
      "जगत": 6029,
      "शररक": 6030,
      "चलक": 6031,
      "कनय": 6032,
      "तवर": 6033,
      "नभई": 6034,
      "नरदशत": 6035,
      "रकन": 6036,
      "ber": 6037,
      "नवमबर": 6038,
      "वयवसयक": 6039,
      "लटन": 6040,
      "औरग": 6041,
      "पठय": 6042,
      "एकमतर": 6043,
      "ly": 6044,
      "आरमभ": 6045,
      "नयजलड": 6046,
      "पररभ": 6047,
      "1996": 6048,
      "me": 6049,
      "ies": 6050,
      "परवह": 6051,
      "दरघ": 6052,
      "जकशन": 6053,
      "वकय": 6054,
      "कपड": 6055,
      "रजनतजञ": 6056,
      "बरल": 6057,
      "https": 6058,
      "समरक": 6059,
      "नयमत": 6060,
      "मनतर": 6061,
      "दषटकण": 6062,
      "ईशवर": 6063,
      "गरब": 6064,
      "भगतन": 6065,
      "यदयप": 6066,
      "ससथपक": 6067,
      "io": 6068,
      "fr": 6069,
      "ढग": 6070,
      "मखयमतर": 6071,
      "188": 6072,
      "सभवन": 6073,
      "ततय": 6074,
      "ian": 6075,
      "''": 6076,
      "तड": 6077,
      "नषट": 6078,
      "ment": 6079,
      "33": 6080,
      "असततव": 6081,
      "अमल": 6082,
      "तलग": 6083,
      "परजत": 6084,
      "75": 6085,
      "1997": 6086,
      "कसट": 6087,
      "बरम": 6088,
      "घटनओ": 6089,
      "कटक": 6090,
      "सशल": 6091,
      "ath": 6092,
      "सनदर": 6093,
      "पदधत": 6094,
      "डकटर": 6095,
      "नकर": 6096,
      "कलर": 6097,
      "national": 6098,
      "रपय": 6099,
      "करबनक": 6100,
      "यगढ": 6101,
      "१९४": 6102,
      "छल": 6103,
      "भटट": 6104,
      "कहनय": 6105,
      "मसजद": 6106,
      "वकलप": 6107,
      "कटर": 6108,
      "कटन": 6109,
      "आइ": 6110,
      "आखर": 6111,
      "सकड": 6112,
      "ial": 6113,
      "सफद": 6114,
      "गरप": 6115,
      "हरयण": 6116,
      "अधकरय": 6117,
      "गरव": 6118,
      "अरथवयवसथ": 6119,
      "नभ": 6120,
      "नकलन": 6121,
      "बधय": 6122,
      "रयल": 6123,
      "आरभ": 6124,
      "कलम": 6125,
      "ics": 6126,
      "इजनयरग": 6127,
      "आदम": 6128,
      "एटर": 6129,
      "खदय": 6130,
      "गभर": 6131,
      "परवरतत": 6132,
      "सहमत": 6133,
      "ढक": 6134,
      "दहर": 6135,
      "wh": 6136,
      "खलत": 6137,
      "अय": 6138,
      "ell": 6139,
      "बयर": 6140,
      "कमपन": 6141,
      "जहज": 6142,
      "खश": 6143,
      "रजकमर": 6144,
      "पमन": 6145,
      "वरणत": 6146,
      "48": 6147,
      "ऋण": 6148,
      "जटल": 6149,
      "मसक": 6150,
      "हदय": 6151,
      "एशयई": 6152,
      "पकड": 6153,
      "सपद": 6154,
      "वलयम": 6155,
      "नगम": 6156,
      "उतर": 6157,
      "आतक": 6158,
      "धश": 6159,
      "वसतओ": 6160,
      "वजञपन": 6161,
      "तपमन": 6162,
      "डश": 6163,
      "सवओ": 6164,
      "परवहन": 6165,
      "वणजय": 6166,
      "परतप": 6167,
      "कशर": 6168,
      "सइट": 6169,
      "उनस": 6170,
      "ack": 6171,
      "सथर": 6172,
      "कनदरय": 6173,
      "सचव": 6174,
      "लमटड": 6175,
      "par": 6176,
      "कलप": 6177,
      "दह": 6178,
      "सकषप": 6179,
      "बनकर": 6180,
      "परसरण": 6181,
      "करकटर": 6182,
      "ft": 6183,
      "भट": 6184,
      "सलन": 6185,
      "फय": 6186,
      "',": 6187,
      "चननई": 6188,
      "सपतह": 6189,
      "शखर": 6190,
      "गरहक": 6191,
      "सरवचच": 6192,
      "आजद": 6193,
      "परजतय": 6194,
      "नकलत": 6195,
      "पररम": 6196,
      "सपरध": 6197,
      "समझन": 6198,
      "सतरय": 6199,
      "36": 6200,
      "जरज": 6201,
      "पचरक": 6202,
      "पणड": 6203,
      "अवधरण": 6204,
      "mar": 6205,
      "अरजन": 6206,
      "परतयकष": 6207,
      "from": 6208,
      "सवयत": 6209,
      "इकई": 6210,
      "बलत": 6211,
      "olog": 6212,
      "परसरत": 6213,
      "वभजन": 6214,
      "कलयण": 6215,
      "india": 6216,
      "हदरबद": 6217,
      "str": 6218,
      "ok": 6219,
      "पष": 6220,
      "चतन": 6221,
      "थम": 6222,
      "आरय": 6223,
      "३०": 6224,
      "eng": 6225,
      "सफर": 6226,
      "hy": 6227,
      "मनस": 6228,
      "ction": 6229,
      "परगरम": 6230,
      "185": 6231,
      "कतन": 6232,
      "आकश": 6233,
      "78": 6234,
      "सममलत": 6235,
      "चकतसक": 6236,
      "कतर": 6237,
      "इटरनट": 6238,
      "पसट": 6239,
      "1992": 6240,
      "वखयत": 6241,
      "ततकलन": 6242,
      "उपध": 6243,
      "ass": 6244,
      "वशय": 6245,
      "उपय": 6246,
      "२५": 6247,
      "पशवर": 6248,
      "बललबज": 6249,
      "1994": 6250,
      "\"|": 6251,
      "मरय": 6252,
      "अधकतर": 6253,
      "सलह": 6254,
      "1995": 6255,
      "1993": 6256,
      "ओवर": 6257,
      "गजर": 6258,
      "समरपत": 6259,
      "टवट": 6260,
      "नयतरत": 6261,
      "अतयत": 6262,
      "कब": 6263,
      "सतमबर": 6264,
      "na": 6265,
      "वदन": 6266,
      "शसतरय": 6267,
      "यनवरसट": 6268,
      "वनद": 6269,
      "नकसन": 6270,
      "वकरम": 6271,
      "वशक": 6272,
      "अड": 6273,
      "बजल": 6274,
      "वरषक": 6275,
      "कदरत": 6276,
      "अधयय": 6277,
      "टपपण": 6278,
      "।।": 6279,
      "फलड": 6280,
      "वतवरण": 6281,
      "करमश": 6282,
      ".,": 6283,
      "उतपतत": 6284,
      "ill": 6285,
      "शदध": 6286,
      "कगड": 6287,
      "उचत": 6288,
      "दतत": 6289,
      "fo": 6290,
      "vir": 6291,
      "1991": 6292,
      "टनस": 6293,
      "ther": 6294,
      "परतभ": 6295,
      "पटक": 6296,
      "अवरड": 6297,
      "फरच": 6298,
      "शयम": 6299,
      "iz": 6300,
      "शकल": 6301,
      "मगर": 6302,
      "छडकर": 6303,
      "रपण": 6304,
      "दरद": 6305,
      ":-": 6306,
      "वयस": 6307,
      "form": 6308,
      "अगन": 6309,
      "कशन": 6310,
      "ननतल": 6311,
      "65": 6312,
      "नरदशन": 6313,
      "लई": 6314,
      "हरन": 6315,
      "तबबत": 6316,
      "int": 6317,
      "रयगढ": 6318,
      "परतत": 6319,
      "जलवय": 6320,
      "वयजन": 6321,
      "ik": 6322,
      "सपतत": 6323,
      "फलन": 6324,
      "अशक": 6325,
      "ट20": 6326,
      "अजञत": 6327,
      "अफगनसतन": 6328,
      "गणरजय": 6329,
      "करर": 6330,
      "जमस": 6331,
      "यट": 6332,
      "37": 6333,
      "bn": 6334,
      "सकरमण": 6335,
      "बढव": 6336,
      "500": 6337,
      "आतरक": 6338,
      "टरफ": 6339,
      "बलट": 6340,
      "मनसक": 6341,
      "ऑर": 6342,
      "परयटक": 6343,
      "असर": 6344,
      "1970": 6345,
      "जहर": 6346,
      "सरग": 6347,
      "इटरनशनल": 6348,
      "एशन": 6349,
      "दरवय": 6350,
      "ens": 6351,
      "दवद": 6352,
      "षद": 6353,
      "मरश": 6354,
      "नबर": 6355,
      "‍त": 6356,
      "res": 6357,
      "शखल": 6358,
      "धरव": 6359,
      "38": 6360,
      "परणक": 6361,
      "दवय": 6362,
      "comp": 6363,
      "fe": 6364,
      "पतल": 6365,
      "११": 6366,
      "औष": 6367,
      "गरसत": 6368,
      "शतर": 6369,
      "बहदर": 6370,
      "dis": 6371,
      "शचत": 6372,
      "कपतन": 6373,
      "सपरट": 6374,
      "वई": 6375,
      "समनत": 6376,
      "नकय": 6377,
      "परतम": 6378,
      "har": 6379,
      "यनन": 6380,
      "पररण": 6381,
      "34": 6382,
      "वलट": 6383,
      "समनयत": 6384,
      "\"।": 6385,
      "शलय": 6386,
      "चधर": 6387,
      "दरशनक": 6388,
      "मलल": 6389,
      "वशवक": 6390,
      "नययधश": 6391,
      "जरर": 6392,
      "शरदध": 6393,
      "समरथ": 6394,
      "ot": 6395,
      "जयग": 6396,
      "नरश": 6397,
      "ations": 6398,
      "अरण": 6399,
      "उपयकत": 6400,
      "सकन": 6401,
      "परमयर": 6402,
      "if": 6403,
      "दबव": 6404,
      "अललह": 6405,
      "कउ": 6406,
      "चप": 6407,
      "ative": 6408,
      "www": 6409,
      "करदर": 6410,
      "पचयत": 6411,
      "ववध": 6412,
      "यतरक": 6413,
      "नदन": 6414,
      "२४": 6415,
      "32": 6416,
      "रशन": 6417,
      "दप": 6418,
      "महभरत": 6419,
      "परभषत": 6420,
      "अभयस": 6421,
      "लकड": 6422,
      "आनदलन": 6423,
      "मबइल": 6424,
      "कदम": 6425,
      "पषण": 6426,
      "कलडर": 6427,
      "डजटल": 6428,
      "सहतयक": 6429,
      "अरथशसतर": 6430,
      "लखनऊ": 6431,
      "मतलब": 6432,
      "समपरण": 6433,
      "एडर": 6434,
      "यजञ": 6435,
      "तरख": 6436,
      "रजत": 6437,
      "वतरण": 6438,
      "बरह": 6439,
      "अस": 6440,
      "mon": 6441,
      "गरफतर": 6442,
      "खब": 6443,
      "मघ": 6444,
      "कतत": 6445,
      "सवए": 6446,
      "मजबन": 6447,
      "तरग": 6448,
      "ईसव": 6449,
      "परफसर": 6450,
      "ससकर": 6451,
      "कथन": 6452,
      "वनसपत": 6453,
      "एथ": 6454,
      "नदशक": 6455,
      "बकय": 6456,
      "isbn": 6457,
      "रजगर": 6458,
      "शयद": 6459,
      "इग": 6460,
      "archive": 6461,
      "समप": 6462,
      "उपगरह": 6463,
      "47": 6464,
      "der": 6465,
      "सटस": 6466,
      "ich": 6467,
      "अलगढ": 6468,
      "रबरट": 6469,
      "पठयकरम": 6470,
      "परणत": 6471,
      "टकस": 6472,
      "cy": 6473,
      "डसक": 6474,
      "महदव": 6475,
      "ऑसटरलयई": 6476,
      "दकर": 6477,
      "दरय": 6478,
      "समसयओ": 6479,
      "जयपर": 6480,
      "रसल": 6481,
      "डब": 6482,
      "सभयत": 6483,
      "बलवड": 6484,
      "सबक": 6485,
      "gu": 6486,
      "1989": 6487,
      "1960": 6488,
      "\")": 6489,
      "कमड": 6490,
      "एपस": 6491,
      "ठड": 6492,
      "आपरत": 6493,
      "पढई": 6494,
      "गणवतत": 6495,
      "ऑनल": 6496,
      "रजपत": 6497,
      "पवर": 6498,
      "हसतकषर": 6499,
      "परतनध": 6500,
      "खरब": 6501,
      "पडन": 6502,
      "भगलक": 6503,
      "पचव": 6504,
      "चनत": 6505,
      "गदबज": 6506,
      "खनन": 6507,
      "गवरनर": 6508,
      "वसय": 6509,
      "परध": 6510,
      "शरब": 6511,
      "चरत": 6512,
      "उननत": 6513,
      "यश": 6514,
      "55": 6515,
      "ide": 6516,
      "उतसव": 6517,
      "अकषर": 6518,
      "इच": 6519,
      "ऑनलइन": 6520,
      "२१": 6521,
      "रघ": 6522,
      "यदव": 6523,
      "jo": 6524,
      "मशरण": 6525,
      "हसय": 6526,
      "इटस": 6527,
      "इतहसकर": 6528,
      "आकरषण": 6529,
      "समसत": 6530,
      "मकस": 6531,
      "अमरकन": 6532,
      "अनप": 6533,
      "99": 6534,
      "les": 6535,
      "खतम": 6536,
      "रशत": 6537,
      "सटरट": 6538,
      "सरस": 6539,
      "परतसपरध": 6540,
      "कलस": 6541,
      "फलत": 6542,
      "जनजतय": 6543,
      "अलक": 6544,
      "महवदयलय": 6545,
      "land": 6546,
      "ect": 6547,
      "तयग": 6548,
      "दक": 6549,
      "सटडयम": 6550,
      "gro": 6551,
      "तयहर": 6552,
      "यथ": 6553,
      "रचक": 6554,
      "हमलय": 6555,
      "uk": 6556,
      "बनधत": 6557,
      "जडत": 6558,
      "हथयर": 6559,
      "शलप": 6560,
      "(\"": 6561,
      "जवक": 6562,
      "बगलर": 6563,
      "ence": 6564,
      "ऑन": 6565,
      "हरड": 6566,
      "कगडम": 6567,
      "भस": 6568,
      "कषतरफल": 6569,
      "पलय": 6570,
      "बठक": 6571,
      "नशन": 6572,
      "नतक": 6573,
      "वरस": 6574,
      "पडय": 6575,
      "पपल": 6576,
      "yle": 6577,
      "कमय": 6578,
      "64": 6579,
      "1986": 6580,
      "रगढ": 6581,
      "गफ": 6582,
      "टकड": 6583,
      "पसतकलय": 6584,
      "os": 6585,
      "मकबल": 6586,
      "घत": 6587,
      "थई": 6588,
      "महदवप": 6589,
      "परटन": 6590,
      "बरस": 6591,
      "सखन": 6592,
      "औरगबद": 6593,
      "नबल": 6594,
      "सकषपत": 6595,
      "मनल": 6596,
      "cor": 6597,
      "वशषजञ": 6598,
      "वम": 6599,
      "शकतय": 6600,
      "महसस": 6601,
      "परसथतय": 6602,
      "सरजन": 6603,
      "ck": 6604,
      "वयरस": 6605,
      "खरच": 6606,
      "शकतशल": 6607,
      "खलडय": 6608,
      "अदलबद": 6609,
      "एजस": 6610,
      "उततरधकर": 6611,
      "इबन": 6612,
      "वयन": 6613,
      "अनतररषटरय": 6614,
      "जवल": 6615,
      "सवकत": 6616,
      "आरट": 6617,
      "1988": 6618,
      "):": 6619,
      "दहन": 6620,
      "रखश": 6621,
      "परचलन": 6622,
      "39": 6623,
      "1984": 6624,
      "सरवर": 6625,
      "अनकल": 6626,
      "ईट": 6627,
      "कमजर": 6628,
      "बए": 6629,
      "इर": 6630,
      "चतत": 6631,
      "1985": 6632,
      "हमचल": 6633,
      "गरय": 6634,
      "इलज": 6635,
      "आशक": 6636,
      "उलल": 6637,
      "धयय": 6638,
      "डवजन": 6639,
      "जध": 6640,
      "परशस": 6641,
      "आकरषत": 6642,
      "ug": 6643,
      "सकरन": 6644,
      "अज": 6645,
      "आधय": 6646,
      "बदलव": 6647,
      "ain": 6648,
      "कणड": 6649,
      "शरषठ": 6650,
      "अनपत": 6651,
      "आयरलड": 6652,
      "शभ": 6653,
      "बचपन": 6654,
      "मसतषक": 6655,
      "एपसड": 6656,
      "फरज": 6657,
      "बसत": 6658,
      "सवचछ": 6659,
      "net": 6660,
      "मलनड": 6661,
      "style": 6662,
      "end": 6663,
      "मतव": 6664,
      "अवशष": 6665,
      "हमन": 6666,
      "पढन": 6667,
      "44": 6668,
      "कउट": 6669,
      "करष": 6670,
      "हनमन": 6671,
      "trans": 6672,
      "कततर": 6673,
      "बयन": 6674,
      "नतमक": 6675,
      "परवस": 6676,
      "जश": 6677,
      "उतकषट": 6678,
      "सकषतकर": 6679,
      "उदर": 6680,
      "जडन": 6681,
      "करनवल": 6682,
      "कननड": 6683,
      "तमलनड": 6684,
      "औपचरक": 6685,
      "ढल": 6686,
      "one": 6687,
      "ser": 6688,
      "पकटर": 6689,
      "दसतवज": 6690,
      "शकषत": 6691,
      "ind": 6692,
      "</": 6693,
      "रजओ": 6694,
      "पतरकर": 6695,
      "सरवकषण": 6696,
      "nam": 6697,
      "घटक": 6698,
      "अण": 6699,
      "सरदर": 6700,
      "असल": 6701,
      "बसन": 6702,
      "चमपयनशप": 6703,
      "जवब": 6704,
      "पख": 6705,
      "अकबर": 6706,
      "सगतकर": 6707,
      "डरइ": 6708,
      "दरव": 6709,
      "करव": 6710,
      "फरनय": 6711,
      "यगयत": 6712,
      "भडर": 6713,
      "उमम": 6714,
      "समदध": 6715,
      "इगल": 6716,
      "अदलत": 6717,
      "68": 6718,
      "सबह": 6719,
      "अधकतम": 6720,
      "मगन": 6721,
      "बरजल": 6722,
      "फरट": 6723,
      "१९३": 6724,
      "समल": 6725,
      "परल": 6726,
      "झड": 6727,
      "परमपर": 6728,
      "रहसय": 6729,
      "वचन": 6730,
      "कथलक": 6731,
      "पथक": 6732,
      "1987": 6733,
      "अनवरय": 6734,
      "कमयन": 6735,
      "सशधन": 6736,
      "कषक": 6737,
      "मगध": 6738,
      "ah": 6739,
      "परशसक": 6740,
      "छय": 6741,
      "सकस": 6742,
      "2023": 6743,
      "मइकल": 6744,
      "हरट": 6745,
      "पकषय": 6746,
      "यमन": 6747,
      "सगम": 6748,
      "सवमतव": 6749,
      "वयकरण": 6750,
      "चतरण": 6751,
      "छठ": 6752,
      "वयकततव": 6753,
      "सनध": 6754,
      "पररप": 6755,
      "सथनतरत": 6756,
      "ve": 6757,
      "अनदर": 6758,
      "फररख": 6759,
      "वनर": 6760,
      "सपरण": 6761,
      "पणन": 6762,
      "ight": 6763,
      "आपस": 6764,
      "आलचक": 6765,
      "सरसवत": 6766,
      "चलय": 6767,
      "1950": 6768,
      "पथरगढ": 6769,
      "टलड": 6770,
      "अनयय": 6771,
      "उपभकत": 6772,
      "एससएशन": 6773,
      "शट": 6774,
      "परसकत": 6775,
      "शनय": 6776,
      "२२": 6777,
      "सवदन": 6778,
      "घम": 6779,
      "मथ": 6780,
      "शहद": 6781,
      "बजन": 6782,
      "1947": 6783,
      "छन": 6784,
      "मरस": 6785,
      "फलमफयर": 6786,
      "करमचरय": 6787,
      "कशकओ": 6788,
      "दवतओ": 6789,
      "ult": 6790,
      "इसटट": 6791,
      "पकर": 6792,
      "ठस": 6793,
      "जलस": 6794,
      "उपनषद": 6795,
      "करयन": 6796,
      "पशच": 6797,
      "मजदर": 6798,
      "ele": 6799,
      "इरद": 6800,
      "तभ": 6801,
      "हनर": 6802,
      "सजञ": 6803,
      "sc": 6804,
      "xt": 6805,
      "छद": 6806,
      "वरगकरण": 6807,
      "सवक": 6808,
      "उथ": 6809,
      "सपरदय": 6810,
      "मशरत": 6811,
      "सतव": 6812,
      "गलब": 6813,
      "रयसत": 6814,
      "इडज": 6815,
      "सनल": 6816,
      "एज": 6817,
      "वरन": 6818,
      "५०": 6819,
      "fi": 6820,
      "ach": 6821,
      "फररखबद": 6822,
      "रहल": 6823,
      "भगदर": 6824,
      "अवतर": 6825,
      "ace": 6826,
      "अनतपर": 6827,
      "line": 6828,
      "पलल": 6829,
      "लकषम": 6830,
      "gen": 6831,
      "रजयपल": 6832,
      "परणलय": 6833,
      "ओडश": 6834,
      "समधन": 6835,
      "left": 6836,
      "शवत": 6837,
      "समबनधत": 6838,
      "ys": 6839,
      "dr": 6840,
      "bi": 6841,
      "ology": 6842,
      "वरसत": 6843,
      "खतब": 6844,
      "दरबर": 6845,
      "सकरतमक": 6846,
      "यहद": 6847,
      "समकलन": 6848,
      "66": 6849,
      "bl": 6850,
      "ईसट": 6851,
      "भगवत": 6852,
      "फकस": 6853,
      "शषय": 6854,
      "परणय": 6855,
      "तरल": 6856,
      "187": 6857,
      "wn": 6858,
      "सनह": 6859,
      "अनन": 6860,
      "परतबध": 6861,
      "1971": 6862,
      "मदरस": 6863,
      "सझव": 6864,
      "डरन": 6865,
      "चहर": 6866,
      "कलफरनय": 6867,
      "अमरत": 6868,
      "तरय": 6869,
      "उदयम": 6870,
      "ated": 6871,
      "out": 6872,
      "तमहर": 6873,
      "फइल": 6874,
      "फसट": 6875,
      "hist": 6876,
      "झरख": 6877,
      "वच": 6878,
      "सदन": 6879,
      "भदर": 6880,
      "पररमभ": 6881,
      "नचल": 6882,
      "वरज": 6883,
      "ms": 6884,
      "टकन": 6885,
      "समथ": 6886,
      "सलट": 6887,
      "बलग": 6888,
      "पडस": 6889,
      "गपल": 6890,
      "बहय": 6891,
      "छडन": 6892,
      "गरगर": 6893,
      "1967": 6894,
      "उभर": 6895,
      "तनव": 6896,
      "कठर": 6897,
      "ong": 6898,
      "ages": 6899,
      "जरय": 6900,
      "सगरम": 6901,
      "चतरत": 6902,
      "des": 6903,
      "अडर": 6904,
      "वटर": 6905,
      "करज": 6906,
      "अनपरयग": 6907,
      "तवच": 6908,
      "२३": 6909,
      "मनर": 6910,
      "दलत": 6911,
      "1972": 6912,
      "पषठभम": 6913,
      "1977": 6914,
      "बलड": 6915,
      "बहद": 6916,
      "95": 6917,
      "चछद": 6918,
      "परतषठत": 6919,
      "गटन": 6920,
      "गवद": 6921,
      "रगन": 6922,
      "रमयण": 6923,
      "pm": 6924,
      "नहत": 6925,
      "खगल": 6926,
      "समकषए": 6927,
      "बखर": 6928,
      "soci": 6929,
      "मपन": 6930,
      "धरक": 6931,
      "लसट": 6932,
      "रषट": 6933,
      "virus": 6934,
      "हटन": 6935,
      "रहग": 6936,
      "lang": 6937,
      "1962": 6938,
      "आतकवद": 6939,
      "उममद": 6940,
      "वयसक": 6941,
      "\".": 6942,
      "झन": 6943,
      "अरध": 6944,
      "अवर": 6945,
      "ढच": 6946,
      "अभवयकत": 6947,
      "सनशचत": 6948,
      "बदलन": 6949,
      "चरलस": 6950,
      "सचच": 6951,
      "कसब": 6952,
      "बनयद": 6953,
      "लबई": 6954,
      "मलशय": 6955,
      "गरमय": 6956,
      "मलव": 6957,
      "उममदवर": 6958,
      "टरड": 6959,
      "झर": 6960,
      "भवक": 6961,
      "२०१४": 6962,
      "300": 6963,
      "ओपन": 6964,
      "कपल": 6965,
      "कसय": 6966,
      "पररथन": 6967,
      "तनतर": 6968,
      "मरल": 6969,
      "अभव": 6970,
      "67": 6971,
      "उदघटन": 6972,
      "center": 6973,
      "color": 6974,
      "मनवजञन": 6975,
      "भन": 6976,
      "कथत": 6977,
      "उचचरण": 6978,
      "आयत": 6979,
      "ue": 6980,
      "सबदध": 6981,
      "परड": 6982,
      "करमचर": 6983,
      "uc": 6984,
      "गयन": 6985,
      "सपदक": 6986,
      "नसन": 6987,
      "महलए": 6988,
      "मकन": 6989,
      "लद": 6990,
      "मनरजन": 6991,
      "२०११": 6992,
      "ववधत": 6993,
      "गरषम": 6994,
      "नरधरण": 6995,
      "ice": 6996,
      "महतम": 6997,
      "समबधत": 6998,
      "छव": 6999,
      "पठक": 7000,
      "बरय": 7001,
      "दखभल": 7002,
      "car": 7003,
      "शकय": 7004,
      "सजय": 7005,
      "मलयकन": 7006,
      "परदय": 7007,
      "49": 7008,
      "गरद": 7009,
      "अलप": 7010,
      "रब": 7011,
      "उतन": 7012,
      "अपकषकत": 7013,
      "इलकटरनक": 7014,
      "आईट": 7015,
      "मरद": 7016,
      "दरनथ": 7017,
      "आशरम": 7018,
      "1982": 7019,
      "धल": 7020,
      "परतरध": 7021,
      "वरषठ": 7022,
      "झरखड": 7023,
      "आवष": 7024,
      "जनय": 7025,
      "बरफ": 7026,
      "मलयलम": 7027,
      "पटकथ": 7028,
      "मडकल": 7029,
      "चवल": 7030,
      "रढ": 7031,
      "मथर": 7032,
      "वशन": 7033,
      "ank": 7034,
      "परतगल": 7035,
      "85": 7036,
      "मकक": 7037,
      "आधयतमक": 7038,
      "her": 7039,
      "सचक": 7040,
      "fl": 7041,
      "))": 7042,
      "करवय": 7043,
      "फफ": 7044,
      "परकरम": 7045,
      "कसल": 7046,
      "नयर": 7047,
      "1983": 7048,
      "डवल": 7049,
      "हवल": 7050,
      "अनबध": 7051,
      "करयकर": 7052,
      "use": 7053,
      "इणड": 7054,
      "जप": 7055,
      "टइमस": 7056,
      "घस": 7057,
      "मथल": 7058,
      "डरस": 7059,
      "able": 7060,
      "इनदर": 7061,
      "यएस": 7062,
      "सठ": 7063,
      "कलकतत": 7064,
      "डउन": 7065,
      "इरक": 7066,
      "बदरगह": 7067,
      "दकन": 7068,
      "वशज": 7069,
      "डरक": 7070,
      "महततवपरण": 7071,
      "डयन": 7072,
      "सधय": 7073,
      "42": 7074,
      "बचत": 7075,
      "गरक": 7076,
      "ref": 7077,
      "05": 7078,
      "जलसथल": 7079,
      "कमई": 7080,
      "वकलपक": 7081,
      "मव": 7082,
      "पहडय": 7083,
      "रगय": 7084,
      "ke": 7085,
      "ty": 7086,
      "एकशन": 7087,
      "sch": 7088,
      "चटटन": 7089,
      "लटर": 7090,
      "शलत": 7091,
      "gre": 7092,
      "खच": 7093,
      "घयल": 7094,
      "अकत": 7095,
      "सखयक": 7096,
      "मजबर": 7097,
      "बनम": 7098,
      "09": 7099,
      "रसर": 7100,
      "नरवचत": 7101,
      "दखकर": 7102,
      "समरथक": 7103,
      "wik": 7104,
      "आहर": 7105,
      "सयजन": 7106,
      "बलकल": 7107,
      "गवल": 7108,
      "मयर": 7109,
      "धयकष": 7110,
      "cal": 7111,
      "ore": 7112,
      "दरघटन": 7113,
      "ata": 7114,
      "गणश": 7115,
      "text": 7116,
      "1975": 7117,
      "समकरण": 7118,
      "अपनय": 7119,
      "कयल": 7120,
      "ition": 7121,
      "सरवपरथम": 7122,
      "ca": 7123,
      "pol": 7124,
      "जधपर": 7125,
      "डव": 7126,
      "यतरय": 7127,
      "pub": 7128,
      "इनकर": 7129,
      "जनजत": 7130,
      "भगलपर": 7131,
      "अपल": 7132,
      "फलसवरप": 7133,
      "फरन": 7134,
      "बलयन": 7135,
      "कलपनक": 7136,
      "मरतय": 7137,
      "कवन": 7138,
      "इसटटयट": 7139,
      "med": 7140,
      "अमन": 7141,
      "जयम": 7142,
      "उपयगकरत": 7143,
      "43": 7144,
      "ऋत": 7145,
      "डच": 7146,
      "बहल": 7147,
      "टयब": 7148,
      "pa": 7149,
      "सकषरत": 7150,
      "पचग": 7151,
      "आवस": 7152,
      "यनयन": 7153,
      "ase": 7154,
      "1952": 7155,
      "लरड": 7156,
      "हइडरजन": 7157,
      "अखल": 7158,
      "88": 7159,
      "सतभ": 7160,
      "बघ": 7161,
      "नतओ": 7162,
      "टरट": 7163,
      "1979": 7164,
      "इनस": 7165,
      "ऑल": 7166,
      "सकय": 7167,
      "छर": 7168,
      "pt": 7169,
      "वरषय": 7170,
      "२६": 7171,
      "मकदम": 7172,
      "जयतष": 7173,
      "तसवर": 7174,
      "गरख": 7175,
      "सथतय": 7176,
      "करमक": 7177,
      "lish": 7178,
      "गरजघर": 7179,
      "book": 7180,
      "करसट": 7181,
      "कशय": 7182,
      "vie": 7183,
      "डबल": 7184,
      "सहज": 7185,
      "ism": 7186,
      "international": 7187,
      "langu": 7188,
      "लइस": 7189,
      "रजव": 7190,
      "करयकरत": 7191,
      "सकटलड": 7192,
      "1973": 7193,
      "चरम": 7194,
      "सदरभत": 7195,
      "मछल": 7196,
      "वसतकल": 7197,
      "war": 7198,
      "सखत": 7199,
      "वदत": 7200,
      "सगपर": 7201,
      "२०१०": 7202,
      "तलब": 7203,
      "चमल": 7204,
      "गलर": 7205,
      "46": 7206,
      "भरषट": 7207,
      ".\"": 7208,
      "समहक": 7209,
      "मइकर": 7210,
      "वयपरक": 7211,
      "अबदल": 7212,
      "एनए": 7213,
      "77": 7214,
      "दढ": 7215,
      "गलम": 7216,
      "परवतत": 7217,
      "बटर": 7218,
      "बदलत": 7219,
      "min": 7220,
      "1981": 7221,
      "भषय": 7222,
      "ya": 7223,
      "२७": 7224,
      "गरत": 7225,
      "बचव": 7226,
      "]]": 7227,
      "एर": 7228,
      "अचल": 7229,
      "सटड": 7230,
      "दकषत": 7231,
      "नरतर": 7232,
      "सगठ": 7233,
      "सरण": 7234,
      "अनरध": 7235,
      "परतसहत": 7236,
      "ससदय": 7237,
      "ae": 7238,
      "रजसव": 7239,
      "डयर": 7240,
      "टइम": 7241,
      "अवसथत": 7242,
      "कननज": 7243,
      "ivers": 7244,
      "ri": 7245,
      "तमर": 7246,
      "native": 7247,
      "सलमन": 7248,
      ");": 7249,
      "ईधन": 7250,
      "वदयरथ": 7251,
      "आदवस": 7252,
      "वयवसथत": 7253,
      "ict": 7254,
      "artic": 7255,
      "गतम": 7256,
      "टकट": 7257,
      "वचरधर": 7258,
      "दयतव": 7259,
      "शयन": 7260,
      "सभल": 7261,
      "करयकल": 7262,
      "जलन": 7263,
      "ai": 7264,
      "अगरण": 7265,
      "अरज": 7266,
      "सघय": 7267,
      "bc": 7268,
      "रदर": 7269,
      "वरतन": 7270,
      "वरणस": 7271,
      "रचर": 7272,
      "परवज": 7273,
      "कचच": 7274,
      "कयम": 7275,
      "अटल": 7276,
      "आइस": 7277,
      "उठन": 7278,
      "सटरल": 7279,
      "परसग": 7280,
      "ललत": 7281,
      "अधर": 7282,
      "हजरत": 7283,
      "गदय": 7284,
      "अभयर": 7285,
      "कतरम": 7286,
      "दयर": 7287,
      "आईए": 7288,
      "धवज": 7289,
      "वकरण": 7290,
      "शवसन": 7291,
      "वयवहरक": 7292,
      "इकइय": 7293,
      "सडन": 7294,
      "खनज": 7295,
      "1978": 7296,
      "ओम": 7297,
      "ममत": 7298,
      "vol": 7299,
      "फटन": 7300,
      "सवधओ": 7301,
      "असफल": 7302,
      "वणजयक": 7303,
      "अनरप": 7304,
      "फतह": 7305,
      "वपणन": 7306,
      "कगज": 7307,
      "बतचत": 7308,
      "परभवशल": 7309,
      "पवन": 7310,
      "​​": 7311,
      "ततरक": 7312,
      "नजद": 7313,
      "खजन": 7314,
      "एकत": 7315,
      "लडन": 7316,
      "मयन": 7317,
      "थरथ": 7318,
      "1974": 7319,
      "बबर": 7320,
      "गठबधन": 7321,
      "site": 7322,
      "इडन": 7323,
      "mat": 7324,
      "समजवद": 7325,
      "गहन": 7326,
      "ममबई": 7327,
      "मशकल": 7328,
      "शरमक": 7329,
      "ear": 7330,
      "1957": 7331,
      "सवधए": 7332,
      "off": 7333,
      "उचचत": 7334,
      "1976": 7335,
      "नषकरष": 7336,
      "e0": 7337,
      "ld": 7338,
      "1948": 7339,
      "69": 7340,
      "ana": 7341,
      "बगशवर": 7342,
      "हप": 7343,
      "1969": 7344,
      "सजव": 7345,
      "1965": 7346,
      "भषक": 7347,
      "इत": 7348,
      "कमपयटर": 7349,
      "शरणय": 7350,
      "पकत": 7351,
      "२८": 7352,
      "कमप": 7353,
      "गवह": 7354,
      "उपनवश": 7355,
      "kh": 7356,
      "tim": 7357,
      "अषट": 7358,
      "शतक": 7359,
      "ance": 7360,
      "सकक": 7361,
      "भपल": 7362,
      "rit": 7363,
      "परतदवद": 7364,
      "चतरकर": 7365,
      "वसथ": 7366,
      "शबदवल": 7367,
      "करटन": 7368,
      "एग": 7369,
      "उपनम": 7370,
      "बरतन": 7371,
      "सपस": 7372,
      "can": 7373,
      "ka": 7374,
      "यकरन": 7375,
      "रचनए": 7376,
      "लकषमण": 7377,
      "1956": 7378,
      "ss": 7379,
      "झठ": 7380,
      "सइस": 7381,
      "एसड": 7382,
      "दकष": 7383,
      "सलहकर": 7384,
      "नवसय": 7385,
      "मरटन": 7386,
      "coun": 7387,
      "बझ": 7388,
      "कररव": 7389,
      "pur": 7390,
      "वमनकषतर": 7391,
      "गलस": 7392,
      "करयई": 7393,
      "जरस": 7394,
      "चग": 7395,
      "मजल": 7396,
      "वइ": 7397,
      "सदव": 7398,
      "मणपर": 7399,
      "indian": 7400,
      "नइटर": 7401,
      "भजप": 7402,
      "२००९": 7403,
      "तततव": 7404,
      "61": 7405,
      "==": 7406,
      "टरसट": 7407,
      "शसनकल": 7408,
      "बटन": 7409,
      "मथन": 7410,
      "वरट": 7411,
      "थमस": 7412,
      "परजनन": 7413,
      "150": 7414,
      "णट": 7415,
      "मनवजञनक": 7416,
      "नयज": 7417,
      "सषट": 7418,
      "work": 7419,
      "ash": 7420,
      "एककत": 7421,
      "दरवज": 7422,
      "अकषश": 7423,
      "अजय": 7424,
      "घटत": 7425,
      "परयगशल": 7426,
      "एथलट": 7427,
      "कटल": 7428,
      "नजदक": 7429,
      "अलपस": 7430,
      "mic": 7431,
      "समपरदय": 7432,
      "उचचतम": 7433,
      "करश": 7434,
      "ससथओ": 7435,
      "तवरत": 7436,
      "करखन": 7437,
      "चमप": 7438,
      "२०१३": 7439,
      "वशषतए": 7440,
      "सरश": 7441,
      "फउड": 7442,
      "मलकत": 7443,
      "शसत": 7444,
      "नरज": 7445,
      "परशत": 7446,
      "मधयमक": 7447,
      "नवब": 7448,
      "परशसत": 7449,
      "रर": 7450,
      "ari": 7451,
      "गडय": 7452,
      "डलन": 7453,
      "नसल": 7454,
      "वनश": 7455,
      "बमब": 7456,
      "अवल": 7457,
      "बसट": 7458,
      "अलपसखय": 7459,
      "एलन": 7460,
      "इडर": 7461,
      "चहय": 7462,
      "तरपर": 7463,
      "शरद": 7464,
      "my": 7465,
      "करयरत": 7466,
      "ससइट": 7467,
      "तलगन": 7468,
      "गटर": 7469,
      "da": 7470,
      "चपड": 7471,
      "वसफट": 7472,
      "टइप": 7473,
      "बतर": 7474,
      "98": 7475,
      "कनपर": 7476,
      "that": 7477,
      "कथओ": 7478,
      "परसतवत": 7479,
      "बतन": 7480,
      "63": 7481,
      "महवर": 7482,
      "असथय": 7483,
      "सयतर": 7484,
      "stem": 7485,
      "अलपसखयक": 7486,
      "400": 7487,
      "सकलन": 7488,
      "....": 7489,
      "परबधक": 7490,
      "ces": 7491,
      "रपर": 7492,
      "लबर": 7493,
      "मनद": 7494,
      "सवट": 7495,
      "univers": 7496,
      "बबस": 7497,
      "अतयनत": 7498,
      "फउडशन": 7499,
      "1930": 7500,
      "परशव": 7501,
      "07": 7502,
      "चरस": 7503,
      "चकन": 7504,
      "बढय": 7505,
      "नप": 7506,
      "bh": 7507,
      "अखबर": 7508,
      "हसतकषप": 7509,
      "अभयरणय": 7510,
      "अरजत": 7511,
      "तलव": 7512,
      "62": 7513,
      "चरट": 7514,
      "औषध": 7515,
      "परयतन": 7516,
      "शवज": 7517,
      "iss": 7518,
      "41": 7519,
      "दबर": 7520,
      "पशकश": 7521,
      "थरल": 7522,
      "1968": 7523,
      "समस": 7524,
      "lin": 7525,
      "आगमन": 7526,
      "गतवध": 7527,
      "फडर": 7528,
      "बश": 7529,
      "सकप": 7530,
      "ws": 7531,
      "२००८": 7532,
      "आननद": 7533,
      "आवषकर": 7534,
      "इडनशय": 7535,
      "जनपद": 7536,
      "dev": 7537,
      "जलत": 7538,
      "हरत": 7539,
      "शललख": 7540,
      "दतय": 7541,
      "करतवय": 7542,
      "यथरथ": 7543,
      "नतम": 7544,
      "१९०": 7545,
      "58": 7546,
      "ba": 7547,
      "आपत": 7548,
      "मखक": 7549,
      "ऑपरशन": 7550,
      "टउन": 7551,
      "ml": 7552,
      "डमन": 7553,
      "एणड": 7554,
      "आनवशक": 7555,
      "सगन": 7556,
      "ep": 7557,
      "उषण": 7558,
      "रचनओ": 7559,
      "08": 7560,
      "red": 7561,
      "लइव": 7562,
      "नटय": 7563,
      "४०": 7564,
      "नब": 7565,
      "शरफ": 7566,
      "1964": 7567,
      "ममर": 7568,
      "लपत": 7569,
      "हलन": 7570,
      "गरषमकलन": 7571,
      "हवन": 7572,
      "महकवय": 7573,
      "ry": 7574,
      "एकतर": 7575,
      "कररवई": 7576,
      "मलग": 7577,
      "रबन": 7578,
      "सककम": 7579,
      "भगन": 7580,
      "57": 7581,
      "नरत": 7582,
      "नयत": 7583,
      "परसपर": 7584,
      "आजकल": 7585,
      "आपन": 7586,
      "del": 7587,
      "वहर": 7588,
      "लकपरयत": 7589,
      "कबन": 7590,
      "धरय": 7591,
      "[[": 7592,
      "।)": 7593,
      "जवर": 7594,
      "back": 7595,
      "fil": 7596,
      "mer": 7597,
      "system": 7598,
      "शघर": 7599,
      "सपदन": 7600,
      "sci": 7601,
      "चरल": 7602,
      "ढढ": 7603,
      "रषटरवद": 7604,
      "सचबदध": 7605,
      "ऊतक": 7606,
      "एजट": 7607,
      "div": 7608,
      "हरस": 7609,
      "मरशल": 7610,
      "इसलय": 7611,
      "दशमन": 7612,
      "बजट": 7613,
      "वयतनम": 7614,
      "world": 7615,
      "ओस": 7616,
      "नकरतमक": 7617,
      "सण": 7618,
      "wer": 7619,
      "मयजक": 7620,
      "लनच": 7621,
      "wo": 7622,
      "52": 7623,
      "शरमत": 7624,
      "पइ": 7625,
      "नकटतम": 7626,
      "रचरड": 7627,
      "दपक": 7628,
      "परकरयओ": 7629,
      "cc": 7630,
      "गरवट": 7631,
      "२०१६": 7632,
      "नरयत": 7633,
      "नमकरण": 7634,
      "son": 7635,
      "यमक": 7636,
      "लइसस": 7637,
      "इसल": 7638,
      "करतकर": 7639,
      "सपनश": 7640,
      "बकग": 7641,
      "छटत": 7642,
      "bar": 7643,
      "सतम": 7644,
      "sm": 7645,
      "चपयनशप": 7646,
      "तनत": 7647,
      "रवन": 7648,
      "नगरन": 7649,
      "आकत": 7650,
      "शनत": 7651,
      "मशहर": 7652,
      "२९": 7653,
      "59": 7654,
      "नरथ": 7655,
      "गलन": 7656,
      "1000": 7657,
      "रइ": 7658,
      "परवधन": 7659,
      "que": 7660,
      "टरमनल": 7661,
      "बरर": 7662,
      "बरश": 7663,
      "फरसट": 7664,
      "नजम": 7665,
      "अधगरहण": 7666,
      "वतन": 7667,
      "दरशय": 7668,
      "उतत": 7669,
      "मनवय": 7670,
      "गहरई": 7671,
      "दखल": 7672,
      "रजनयक": 7673,
      "गथ": 7674,
      "दरर": 7675,
      "पशओ": 7676,
      "वफल": 7677,
      "दवओ": 7678,
      "बगसरय": 7679,
      "जवण": 7680,
      "फशन": 7681,
      "परमरश": 7682,
      "नतव": 7683,
      "२००६": 7684,
      "dy": 7685,
      "रवल": 7686,
      "करआन": 7687,
      "जनयर": 7688,
      "history": 7689,
      "मलट": 7690,
      "पतय": 7691,
      "वडज": 7692,
      "।.": 7693,
      "नयनतम": 7694,
      "rap": 7695,
      "असथ": 7696,
      "सहसन": 7697,
      "was": 7698,
      "सटरक": 7699,
      "लडकय": 7700,
      "वचरक": 7701,
      "74": 7702,
      "बडकर": 7703,
      "अबद": 7704,
      "अवशय": 7705,
      "अनमनत": 7706,
      "1966": 7707,
      "आयरवद": 7708,
      "पलग": 7709,
      "बइ": 7710,
      "मकसक": 7711,
      "उठत": 7712,
      "दरलभ": 7713,
      "अभलख": 7714,
      "वरगकत": 7715,
      "ts": 7716,
      "वशषकर": 7717,
      "सयट": 7718,
      "06": 7719,
      "गणक": 7720,
      "एनम": 7721,
      "टकर": 7722,
      "धख": 7723,
      "मतबक": 7724,
      "nor": 7725,
      "part": 7726,
      "तकत": 7727,
      "हसक": 7728,
      "led": 7729,
      "सपदत": 7730,
      "72": 7731,
      "पपर": 7732,
      "सढ": 7733,
      "फलप": 7734,
      "भरण": 7735,
      "बरत": 7736,
      "नरस": 7737,
      "ऊद": 7738,
      "भटन": 7739,
      "रउड": 7740,
      "उठय": 7741,
      "सशधत": 7742,
      "51": 7743,
      "मरकट": 7744,
      "खबसरत": 7745,
      "रतर": 7746,
      "समरण": 7747,
      "सवसथ": 7748,
      "बलज": 7749,
      "२००७": 7750,
      "वनत": 7751,
      "गमन": 7752,
      "भवय": 7753,
      "cess": 7754,
      "km": 7755,
      "पशन": 7756,
      "सइकल": 7757,
      "बसव": 7758,
      "transl": 7759,
      "ऑट": 7760,
      "महरष": 7761,
      "कवलफयर": 7762,
      "तथप": 7763,
      "कउसल": 7764,
      "fin": 7765,
      "cur": 7766,
      "लडस": 7767,
      "पठर": 7768,
      "चलकर": 7769,
      "परवरक": 7770,
      "तलश": 7771,
      "1963": 7772,
      "६०": 7773,
      "जफर": 7774,
      "उपज": 7775,
      "उलट": 7776,
      "df": 7777,
      "गरडन": 7778,
      "सतल": 7779,
      "उततम": 7780,
      "रहमन": 7781,
      "२०१२": 7782,
      "इतलव": 7783,
      "कषय": 7784,
      "सवनवतत": 7785,
      "यमकशवर": 7786,
      "आईप": 7787,
      "01": 7788,
      "घनतव": 7789,
      "एलए": 7790,
      "बगन": 7791,
      "शटग": 7792,
      "पशय": 7793,
      "भख": 7794,
      "डलत": 7795,
      "वकटरय": 7796,
      "महमर": 7797,
      "पगल": 7798,
      "परधकरण": 7799,
      "धनय": 7800,
      "फलक": 7801,
      "बबव": 7802,
      "परपरगत": 7803,
      "नबध": 7804,
      "भरम": 7805,
      "मसइल": 7806,
      "कषर": 7807,
      "२०१५": 7808,
      "हरमन": 7809,
      "1961": 7810,
      "mun": 7811,
      "not": 7812,
      "val": 7813,
      "शकषणक": 7814,
      "कलश": 7815,
      "दमन": 7816,
      "महम": 7817,
      "सउथ": 7818,
      "जलय": 7819,
      "बयज": 7820,
      "पषप": 7821,
      "दरवयमन": 7822,
      "दणड": 7823,
      "रफ": 7824,
      "जमबबव": 7825,
      "नगपर": 7826,
      "दरशनय": 7827,
      "ram": 7828,
      "परकरण": 7829,
      "इवन": 7830,
      "सवभव": 7831,
      "तस": 7832,
      "ऐड": 7833,
      "उपदश": 7834,
      "रवण": 7835,
      "hi": 7836,
      "सयस": 7837,
      "53": 7838,
      "तमह": 7839,
      "पबलक": 7840,
      "सहल": 7841,
      "खलस": 7842,
      "1920": 7843,
      "भमकओ": 7844,
      "रदद": 7845,
      "spe": 7846,
      "उललघन": 7847,
      "su": 7848,
      "फयद": 7849,
      "इकट": 7850,
      "आशचरय": 7851,
      "iii": 7852,
      "तग": 7853,
      "मटन": 7854,
      "सबर": 7855,
      "परवरत": 7856,
      "press": 7857,
      "लइफ": 7858,
      "टकनलज": 7859,
      "university": 7860,
      "si": 7861,
      "सयग": 7862,
      "अनतम": 7863,
      "vi": 7864,
      "अनर": 7865,
      "1955": 7866,
      "एलजब": 7867,
      "पदरपण": 7868,
      "लयस": 7869,
      "अनचछद": 7870,
      "bas": 7871,
      "दयल": 7872,
      "मइकरस": 7873,
      "सदरय": 7874,
      "सलव": 7875,
      "बढकर": 7876,
      "पततय": 7877,
      "ome": 7878,
      "गवलयर": 7879,
      "600": 7880,
      "मछ": 7881,
      "लनदन": 7882,
      "gy": 7883,
      "समनवय": 7884,
      "कथनक": 7885,
      "टवर": 7886,
      "धड": 7887,
      "पजर": 7888,
      "वसल": 7889,
      "stat": 7890,
      "समट": 7891,
      "आदतय": 7892,
      "परतयग": 7893,
      "view": 7894,
      "ple": 7895,
      "फलय": 7896,
      "चनक": 7897,
      "वदयमन": 7898,
      "लवर": 7899,
      "करडट": 7900,
      "एसट": 7901,
      "सवयतत": 7902,
      "सफरश": 7903,
      "सगठत": 7904,
      "वशगटन": 7905,
      "थएटर": 7906,
      "चनद": 7907,
      "सलर": 7908,
      "आगम": 7909,
      "पठन": 7910,
      "वहइट": 7911,
      "डइ": 7912,
      "56": 7913,
      "कलड": 7914,
      "२०००": 7915,
      "सवरग": 7916,
      "अयधय": 7917,
      "reg": 7918,
      "04": 7919,
      "rel": 7920,
      "आवशयकतओ": 7921,
      "03": 7922,
      "अटर": 7923,
      "बव": 7924,
      "att": 7925,
      "ica": 7926,
      "ins": 7927,
      "आयम": 7928,
      "धमन": 7929,
      "आजम": 7930,
      "ववचन": 7931,
      "आवतत": 7932,
      "२०१८": 7933,
      "पलटफरम": 7934,
      "97": 7935,
      "ससत": 7936,
      "सरन": 7937,
      "कशत": 7938,
      "गतर": 7939,
      "पयस": 7940,
      "नकश": 7941,
      "अनसरण": 7942,
      "वजर": 7943,
      "कटस": 7944,
      "सपनन": 7945,
      "शग": 7946,
      "करपरशन": 7947,
      "अहमदबद": 7948,
      "मनचतर": 7949,
      "online": 7950,
      "लगए": 7951,
      "हदस": 7952,
      "भकप": 7953,
      "परवततर": 7954,
      "सनट": 7955,
      "परपतकरत": 7956,
      "घमत": 7957,
      "आरभक": 7958,
      "उज": 7959,
      "घष": 7960,
      "रसरच": 7961,
      "शनदर": 7962,
      "हसट": 7963,
      "बरदर": 7964,
      "इजरइल": 7965,
      "चमक": 7966,
      "डयम": 7967,
      "bg": 7968,
      "ual": 7969,
      "पडव": 7970,
      "महरन": 7971,
      "1949": 7972,
      "डप": 7973,
      "जवहर": 7974,
      "वकपडय": 7975,
      "परइ": 7976,
      "पलम": 7977,
      "खट": 7978,
      "सतलन": 7979,
      "सवदश": 7980,
      "सयम": 7981,
      "पटरन": 7982,
      "अनज": 7983,
      "मतदन": 7984,
      "परमय": 7985,
      "यगल": 7986,
      "ree": 7987,
      "बहस": 7988,
      "1954": 7989,
      "वशषतओ": 7990,
      "उततरखड": 7991,
      "सपरटस": 7992,
      "शकयत": 7993,
      "1940": 7994,
      "ger": 7995,
      "घल": 7996,
      "उदयपर": 7997,
      "ऑकसइड": 7998,
      "इनफ": 7999,
      "एडवरड": 8000,
      "81": 8001,
      "सवभवक": 8002,
      "मधर": 8003,
      "मवड": 8004,
      "गणतय": 8005,
      "कडप": 8006,
      "ट20ई": 8007,
      "inst": 8008,
      "1945": 8009,
      "af": 8010,
      "परकशक": 8011,
      "जरनल": 8012,
      "रणनत": 8013,
      "तफन": 8014,
      "mal": 8015,
      "ऐन": 8016,
      "जबर": 8017,
      "परसथतक": 8018,
      "met": 8019,
      "मकर": 8020,
      "सए": 8021,
      "अतरल": 8022,
      "इकटठ": 8023,
      "एकड": 8024,
      "हदसतन": 8025,
      "मधव": 8026,
      "lic": 8027,
      "महमद": 8028,
      "मइकरसफट": 8029,
      "सतनम": 8030,
      "शतकलन": 8031,
      "आईएस": 8032,
      "फलट": 8033,
      "चतरथ": 8034,
      "उधर": 8035,
      "लपय": 8036,
      "सवधनक": 8037,
      "हरकर": 8038,
      "अजत": 8039,
      "शषक": 8040,
      "सझदर": 8041,
      "az": 8042,
      "vis": 8043,
      "आयन": 8044,
      "pal": 8045,
      "बनवय": 8046,
      "रजकय": 8047,
      "बजनस": 8048,
      "परशकषत": 8049,
      "लगक": 8050,
      "सकदर": 8051,
      "पदत": 8052,
      "1959": 8053,
      "सटरन": 8054,
      "फइ": 8055,
      "१००": 8056,
      "परहर": 8057,
      "यगन": 8058,
      "char": 8059,
      "आकरषक": 8060,
      "गठत": 8061,
      "नइट": 8062,
      "लगव": 8063,
      "पतरकरत": 8064,
      "सवगत": 8065,
      "फई": 8066,
      "सयद": 8067,
      "बहमत": 8068,
      "ement": 8069,
      "ओलम": 8070,
      "कषम": 8071,
      "नलक": 8072,
      "बचचन": 8073,
      "आठव": 8074,
      "महतय": 8075,
      "बतल": 8076,
      "बटल": 8077,
      "मखरज": 8078,
      "सपल": 8079,
      "ऑकसजन": 8080,
      "89": 8081,
      "aw": 8082,
      "दवपसमह": 8083,
      "अतथ": 8084,
      "सरवत": 8085,
      "ions": 8086,
      "रकरडग": 8087,
      "औषधय": 8088,
      "सटरस": 8089,
      "नवल": 8090,
      "पदय": 8091,
      "अवयव": 8092,
      "spap": 8093,
      "newspap": 8094,
      "बदशह": 8095,
      "ann": 8096,
      "नपटन": 8097,
      "परततव": 8098,
      "ator": 8099,
      "आतमहतय": 8100,
      "87": 8101,
      "दवल": 8102,
      "तरमडल": 8103,
      "सकषय": 8104,
      "वयय": 8105,
      "अचनक": 8106,
      "सदह": 8107,
      "डजन": 8108,
      "1958": 8109,
      "षठन": 8110,
      "आवग": 8111,
      "अनसचत": 8112,
      "कनस": 8113,
      "1951": 8114,
      "धमक": 8115,
      "उतसरजन": 8116,
      "वसतए": 8117,
      "सकलप": 8118,
      "दवनगर": 8119,
      "जडर": 8120,
      "असमरथ": 8121,
      "रकट": 8122,
      "वभतय": 8123,
      "बदलकर": 8124,
      "1946": 8125,
      "सवतन": 8126,
      "कमयनसट": 8127,
      "पलड": 8128,
      "अकषय": 8129,
      "नभत": 8130,
      "वनथ": 8131,
      "डरड": 8132,
      "समओ": 8133,
      "ute": 8134,
      "टरज": 8135,
      "a4": 8136,
      "tech": 8137,
      "वसटइडज": 8138,
      "ई०": 8139,
      "हसटर": 8140,
      "कसस": 8141,
      "पचम": 8142,
      "इसपत": 8143,
      "सचई": 8144,
      "नशचय": 8145,
      "cap": 8146,
      "चमपवत": 8147,
      "खरज": 8148,
      "धरहर": 8149,
      "परतदन": 8150,
      "दयक": 8151,
      "भरषटचर": 8152,
      "रशम": 8153,
      "वयप": 8154,
      "नटस": 8155,
      "ject": 8156,
      "ground": 8157,
      "करच": 8158,
      "उपमहदवप": 8159,
      "low": 8160,
      "कपस": 8161,
      "बलस": 8162,
      "वनस": 8163,
      "ina": 8164,
      "आकस": 8165,
      "रजरव": 8166,
      "नरद": 8167,
      "भकष": 8168,
      "करबर": 8169,
      "समध": 8170,
      "अनकरम": 8171,
      "परदषण": 8172,
      "ko": 8173,
      "yo": 8174,
      "गलबल": 8175,
      "अणड": 8176,
      "19व": 8177,
      "सलस": 8178,
      "54": 8179,
      "नयल": 8180,
      "कटत": 8181,
      "दतवस": 8182,
      "सफलतपरवक": 8183,
      "हसब": 8184,
      "inc": 8185,
      "नभय": 8186,
      "मफत": 8187,
      "चमबकय": 8188,
      "list": 8189,
      "sub": 8190,
      "परयजनओ": 8191,
      ",\"": 8192,
      "हगल": 8193,
      "उपयगकरतओ": 8194,
      "oft": 8195,
      "cont": 8196,
      "ous": 8197,
      "ववक": 8198,
      "ev": 8199,
      "परगन": 8200,
      "रपतरण": 8201,
      "ton": 8202,
      "सनतकततर": 8203,
      "पलसटक": 8204,
      "मकबर": 8205,
      "language": 8206,
      "86": 8207,
      "नकषतर": 8208,
      "करषण": 8209,
      "कनदरत": 8210,
      "एयरलइन": 8211,
      "करयओ": 8212,
      "परमणत": 8213,
      "शरकषण": 8214,
      "आमतरत": 8215,
      "घरण": 8216,
      "जहन": 8217,
      "colle": 8218,
      "ऊषम": 8219,
      "73": 8220,
      "घतक": 8221,
      "रटग": 8222,
      "८०": 8223,
      "यई": 8224,
      "old": 8225,
      "सनई": 8226,
      "रकग": 8227,
      "kar": 8228,
      "रजमट": 8229,
      "कवड": 8230,
      "indu": 8231,
      "आरकटक": 8232,
      "चपयन": 8233,
      "थरप": 8234,
      "कलबय": 8235,
      "वकटर": 8236,
      "झरखणड": 8237,
      "पकडन": 8238,
      "ust": 8239,
      "कमट": 8240,
      "सहस": 8241,
      "औपन": 8242,
      "गनत": 8243,
      "84": 8244,
      "जबल": 8245,
      "बण": 8246,
      "यड": 8247,
      "एलजबथ": 8248,
      "खयन": 8249,
      "परशरम": 8250,
      "गलडन": 8251,
      "भवनओ": 8252,
      "uth": 8253,
      "घरन": 8254,
      "bal": 8255,
      "एजलस": 8256,
      "भगय": 8257,
      "ave": 8258,
      "दहरदन": 8259,
      "करयनवयन": 8260,
      "mi": 8261,
      "ros": 8262,
      "इसतफ": 8263,
      "लकत": 8264,
      "नदरलड": 8265,
      "अदभत": 8266,
      "चनन": 8267,
      "बप": 8268,
      "महरण": 8269,
      "शस": 8270,
      "win": 8271,
      "असमनय": 8272,
      "परजकट": 8273,
      "करमय": 8274,
      "ung": 8275,
      "परटग": 8276,
      "बनधन": 8277,
      "सशसतर": 8278,
      "आण": 8279,
      "सदसयत": 8280,
      "eld": 8281,
      "नरमतओ": 8282,
      "वतरत": 8283,
      "सरह": 8284,
      "सनपत": 8285,
      "1953": 8286,
      "कलग": 8287,
      "एमएस": 8288,
      "समपन": 8289,
      "कटट": 8290,
      "चटट": 8291,
      "२००१": 8292,
      "करयवह": 8293,
      "कटबधय": 8294,
      "जडव": 8295,
      "शबदक": 8296,
      "pre": 8297,
      "आमर": 8298,
      "सपकटर": 8299,
      "हलस": 8300,
      "ककर": 8301,
      "लणड": 8302,
      "१८९": 8303,
      "एप": 8304,
      "आवदन": 8305,
      "‍व": 8306,
      "sk": 8307,
      "टयर": 8308,
      "वषणव": 8309,
      "फदर": 8310,
      "२०१७": 8311,
      "%)": 8312,
      "करपरट": 8313,
      "ick": 8314,
      "ctr": 8315,
      "मटल": 8316,
      "जनव": 8317,
      "अवलकन": 8318,
      "बलच": 8319,
      "२००४": 8320,
      "----": 8321,
      "पएच": 8322,
      "गयरह": 8323,
      "जरए": 8324,
      "तलवर": 8325,
      "span": 8326,
      "उरफ": 8327,
      "सउड": 8328,
      "हरष": 8329,
      "पदल": 8330,
      "02": 8331,
      "sam": 8332,
      "जमदर": 8333,
      "its": 8334,
      "मउट": 8335,
      "सकसन": 8336,
      "लयम": 8337,
      "दई": 8338,
      "नध": 8339,
      "रटर": 8340,
      "पतरकओ": 8341,
      "सलक": 8342,
      "खरदन": 8343,
      "नकस": 8344,
      "मलर": 8345,
      "करगर": 8346,
      "सरवस": 8347,
      "हगकग": 8348,
      "फलपस": 8349,
      "96": 8350,
      "खगलय": 8351,
      "परभत": 8352,
      "फकशन": 8353,
      "चडय": 8354,
      "परयदवप": 8355,
      "सचय": 8356,
      "इमम": 8357,
      "लमबई": 8358,
      "ater": 8359,
      "fa": 8360,
      "जओ": 8361,
      "टपपणय": 8362,
      "इसपकटर": 8363,
      "अनल": 8364,
      "फलर": 8365,
      "सचज": 8366,
      "इसलमक": 8367,
      "ga": 8368,
      "पछड": 8369,
      "amer": 8370,
      "डकशन": 8371,
      "सगल": 8372,
      "सततर": 8373,
      "सवडन": 8374,
      "२००५": 8375,
      "परखणड": 8376,
      "रजश": 8377,
      "हनदसतन": 8378,
      "भकय": 8379,
      "कलपत": 8380,
      "कमक": 8381,
      "92": 8382,
      "cs": 8383,
      "mad": 8384,
      "गरल": 8385,
      "परटर": 8386,
      "वरमन": 8387,
      "वनमय": 8388,
      "ob": 8389,
      "कडल": 8390,
      "छदर": 8391,
      "रकषस": 8392,
      "??": 8393,
      "76": 8394,
      "सपरश": 8395,
      "गलक": 8396,
      "कटव": 8397,
      "urn": 8398,
      "गरग": 8399,
      "ograp": 8400,
      "name": 8401,
      "अट": 8402,
      "सटफन": 8403,
      "ओलमपक": 8404,
      "सदय": 8405,
      "बरयन": 8406,
      "मडन": 8407,
      "sup": 8408,
      "चचर": 8409,
      "उतपदक": 8410,
      "पलत": 8411,
      "ital": 8412,
      "भइय": 8413,
      "कमडर": 8414,
      "मनवत": 8415,
      "जसफ": 8416,
      "सवतनतरत": 8417,
      "परबल": 8418,
      "ال": 8419,
      "his": 8420,
      "बथ": 8421,
      "नययक": 8422,
      "मतभद": 8423,
      "नवर": 8424,
      "लच": 8425,
      "93": 8426,
      "रकषक": 8427,
      "उडस": 8428,
      "परमत": 8429,
      "वजयन": 8430,
      "एलस": 8431,
      "असमय": 8432,
      "गजल": 8433,
      "अररय": 8434,
      "गरउड": 8435,
      "डयल": 8436,
      "cer": 8437,
      "उतसह": 8438,
      "तटय": 8439,
      "परमर": 8440,
      "800": 8441,
      "fir": 8442,
      "गतकर": 8443,
      "टकय": 8444,
      "सलगन": 8445,
      "बरलन": 8446,
      "जदग": 8447,
      "ja": 8448,
      "शरवण": 8449,
      "71": 8450,
      "रखकर": 8451,
      "formation": 8452,
      "मकथ": 8453,
      "करए": 8454,
      "रजर": 8455,
      "२००३": 8456,
      "पढय": 8457,
      "चतवन": 8458,
      "भकयसण": 8459,
      "७०": 8460,
      "परसनन": 8461,
      "सलतनत": 8462,
      "जतक": 8463,
      "पकज": 8464,
      "sol": 8465,
      "चसटर": 8466,
      "ससयट": 8467,
      "परतबधत": 8468,
      "नगल": 8469,
      "sur": 8470,
      "समभव": 8471,
      "बटय": 8472,
      "ऋगवद": 8473,
      "महग": 8474,
      "परसन": 8475,
      "html": 8476,
      "लजर": 8477,
      "यनट": 8478,
      "उपधयकष": 8479,
      "वसतवकत": 8480,
      "कमकस": 8481,
      "यरस": 8482,
      "ents": 8483,
      "भननत": 8484,
      "1942": 8485,
      "चदरम": 8486,
      "रजदत": 8487,
      "परतदवदव": 8488,
      "टरल": 8489,
      "कलह": 8490,
      "सथपतय": 8491,
      "मनज": 8492,
      "website": 8493,
      "अधयकषत": 8494,
      "आदर": 8495,
      "वयगय": 8496,
      "एफए": 8497,
      "bgcolor": 8498,
      "पसन": 8499,
      "लथ": 8500,
      "सटव": 8501,
      "row": 8502,
      "background": 8503,
      "सपट": 8504,
      "’,": 8505,
      "कलट": 8506,
      "चनह": 8507,
      "महतसव": 8508,
      "यजनओ": 8509,
      "एकसचज": 8510,
      "mag": 8511,
      "उपलबधय": 8512,
      "खतरनक": 8513,
      "परवषट": 8514,
      "igh": 8515,
      "वपकष": 8516,
      "भजपर": 8517,
      "120": 8518,
      "गपन": 8519,
      "भवत": 8520,
      "नटकय": 8521,
      "वयतपनन": 8522,
      "डरइव": 8523,
      "ऑव": 8524,
      "शथ": 8525,
      "सरजर": 8526,
      "eff": 8527,
      "अनषठन": 8528,
      "मकष": 8529,
      "आसटर": 8530,
      "२०१९": 8531,
      "नभन": 8532,
      "रपकष": 8533,
      "पररमभक": 8534,
      "घमन": 8535,
      "लवण": 8536,
      "परग": 8537,
      "औरगजब": 8538,
      "फफर": 8539,
      "मफ": 8540,
      "करनत": 8541,
      "दनव": 8542,
      "वभकत": 8543,
      "82": 8544,
      "णयक": 8545,
      "ट20आई": 8546,
      "इसर": 8547,
      "गवनद": 8548,
      "समरपण": 8549,
      "vo": 8550,
      "उगर": 8551,
      "वनयस": 8552,
      "अवरडस": 8553,
      "इफ": 8554,
      "हकम": 8555,
      "अटरकटक": 8556,
      "गसवम": 8557,
      "परटमट": 8558,
      "नमटड": 8559,
      "पहलओ": 8560,
      "मधयपरदश": 8561,
      "समदयक": 8562,
      ";\"": 8563,
      "other": 8564,
      "आगरह": 8565,
      "समतर": 8566,
      "सवपन": 8567,
      "जवलमख": 8568,
      "प०": 8569,
      "करटक": 8570,
      "सरवभ": 8571,
      "ited": 8572,
      "कवतओ": 8573,
      "दज": 8574,
      "परगरमग": 8575,
      "अरणचल": 8576,
      "एसप": 8577,
      "एडस": 8578,
      "डटबस": 8579,
      "आजञ": 8580,
      "वयदध": 8581,
      "आरटस": 8582,
      "गणततर": 8583,
      "तओ": 8584,
      "परवतमल": 8585,
      "बकनर": 8586,
      "परचत": 8587,
      "सरदय": 8588,
      "अजन": 8589,
      "मनटर": 8590,
      "बरहमणड": 8591,
      "सलहव": 8592,
      "औपनवशक": 8593,
      "फफड": 8594,
      "परपथ": 8595,
      "सनर": 8596,
      "करतक": 8597,
      "बइन": 8598,
      "नवज": 8599,
      "bu": 8600,
      "मकम": 8601,
      "धरथ": 8602,
      "गदद": 8603,
      "भणड": 8604,
      "रलग": 8605,
      "सममत": 8606,
      "सटरम": 8607,
      "amp": 8608,
      "तलल": 8609,
      "हमस": 8610,
      "दतओ": 8611,
      "ile": 8612,
      "नलम": 8613,
      "वरधन": 8614,
      "हगर": 8615,
      "रपए": 8616,
      "नरदषट": 8617,
      "सनओ": 8618,
      "250": 8619,
      "घव": 8620,
      "थलस": 8621,
      "३५": 8622,
      "लयक": 8623,
      "समकषक": 8624,
      "hr": 8625,
      "धतओ": 8626,
      "पजकत": 8627,
      "समसयए": 8628,
      "crip": 8629,
      "सरकषक": 8630,
      "eu": 8631,
      "सइड": 8632,
      "पतक": 8633,
      "परटकल": 8634,
      "शखओ": 8635,
      "आपद": 8636,
      "1936": 8637,
      ")-": 8638,
      "अकरबनक": 8639,
      "सनयस": 8640,
      "चदन": 8641,
      "फचर": 8642,
      "परतसहन": 8643,
      "चलचतर": 8644,
      "तमम": 8645,
      "आसथ": 8646,
      "बनरस": 8647,
      "थईलड": 8648,
      "दलन": 8649,
      "बबल": 8650,
      "कपटन": 8651,
      "नवशक": 8652,
      "ऑकसफरड": 8653,
      "अदवतय": 8654,
      "नयस": 8655,
      "कबनट": 8656,
      "असधरण": 8657,
      "94": 8658,
      "bor": 8659,
      "num": 8660,
      "नषकरय": 8661,
      "धमर": 8662,
      "लफटन": 8663,
      "अपमन": 8664,
      "equ": 8665,
      "खजर": 8666,
      "झक": 8667,
      "फलमकन": 8668,
      "समनतर": 8669,
      "रडर": 8670,
      "ala": 8671,
      "सवटजर": 8672,
      "उकत": 8673,
      "समतल": 8674,
      "वधकर": 8675,
      "इबरहम": 8676,
      "अपहरण": 8677,
      "ऐल": 8678,
      "ससकतय": 8679,
      "एगल": 8680,
      "इगलश": 8681,
      "वशम": 8682,
      "यनक": 8683,
      "नमज": 8684,
      "शकग": 8685,
      "gram": 8686,
      "पपलस": 8687,
      "भप": 8688,
      "रगमच": 8689,
      "शहजह": 8690,
      "newspapers": 8691,
      "मरण": 8692,
      "एकदवसय": 8693,
      "कलरक": 8694,
      "83": 8695,
      "खसकर": 8696,
      "परवन": 8697,
      "समवश": 8698,
      "कयर": 8699,
      "गयतर": 8700,
      "वसतरत": 8701,
      "गमस": 8702,
      "मरट": 8703,
      "public": 8704,
      "गरखपर": 8705,
      "सकग": 8706,
      "बदधक": 8707,
      "अभय": 8708,
      "एककरण": 8709,
      "समयक": 8710,
      "खदई": 8711,
      "मघलय": 8712,
      "हफत": 8713,
      "कलल": 8714,
      "भरव": 8715,
      "बकटरय": 8716,
      "ni": 8717,
      "tv": 8718,
      "एनमटड": 8719,
      "सऊद": 8720,
      "सटप": 8721,
      "मनहर": 8722,
      "sw": 8723,
      "डई": 8724,
      "लगकर": 8725,
      "आपर": 8726,
      "चबकय": 8727,
      "सनकर": 8728,
      "नमकत": 8729,
      "वटमन": 8730,
      "शयल": 8731,
      "अनपसथत": 8732,
      "एवर": 8733,
      "बठन": 8734,
      "कसतर": 8735,
      "घटय": 8736,
      "ds": 8737,
      "समतय": 8738,
      "सनतन": 8739,
      "परफइल": 8740,
      "पखर": 8741,
      "सरप": 8742,
      "रचनतमक": 8743,
      "कइ": 8744,
      "ani": 8745,
      "लबल": 8746,
      "परतवरष": 8747,
      "रमपर": 8748,
      "रमटक": 8749,
      "भदभव": 8750,
      "गप": 8751,
      "रसतर": 8752,
      "लओ": 8753,
      "आदन": 8754,
      "ततकल": 8755,
      "सभष": 8756,
      "ene": 8757,
      "pos": 8758,
      "चख": 8759,
      "वलपत": 8760,
      "तपसय": 8761,
      "पयग": 8762,
      "अभयतरक": 8763,
      "तलय": 8764,
      "परसथत": 8765,
      "ese": 8766,
      "फटगरफ": 8767,
      "बगड": 8768,
      "परतरकष": 8769,
      "आधन": 8770,
      "दबई": 8771,
      "फरत": 8772,
      "रगसतन": 8773,
      "सपह": 8774,
      "टलर": 8775,
      "चकरवरत": 8776,
      "978": 8777,
      "पयलट": 8778,
      "अजर": 8779,
      "नगन": 8780,
      "नदनक": 8781,
      "सपकष": 8782,
      "gener": 8783,
      "ततपरय": 8784,
      "चमत": 8785,
      "मकल": 8786,
      "रढवद": 8787,
      "असवकर": 8788,
      "बगम": 8789,
      "शरप": 8790,
      "समपनन": 8791,
      "बमरय": 8792,
      "नइजर": 8793,
      "tern": 8794,
      "ks": 8795,
      "शषण": 8796,
      "नरम": 8797,
      "सफई": 8798,
      "log": 8799,
      "pages": 8800,
      "चमड": 8801,
      "electr": 8802,
      "ham": 8803,
      "rad": 8804,
      "लइट": 8805,
      "iso": 8806,
      "वधव": 8807,
      "कशयप": 8808,
      "डबब": 8809,
      "मजक": 8810,
      "पशक": 8811,
      "दलच": 8812,
      "serv": 8813,
      "मजफफर": 8814,
      "91": 8815,
      "रजशह": 8816,
      "वशवयदध": 8817,
      "नरड": 8818,
      "एपपल": 8819,
      "करसटल": 8820,
      "king": 8821,
      "way": 8822,
      "मथय": 8823,
      "बरउन": 8824,
      "सटग": 8825,
      "1939": 8826,
      "एयरलइस": 8827,
      "सहकर": 8828,
      "सथनक": 8829,
      "ution": 8830,
      "ular": 8831,
      "आवसय": 8832,
      "रबट": 8833,
      "महश": 8834,
      "गणतजञ": 8835,
      "लकततर": 8836,
      "वकरत": 8837,
      "परच": 8838,
      "सतष": 8839,
      "अपवद": 8840,
      "गरतव": 8841,
      "परमखत": 8842,
      "कहल": 8843,
      "फलस": 8844,
      "बलजयम": 8845,
      "लइबरर": 8846,
      "ऊन": 8847,
      "रकश": 8848,
      "which": 8849,
      "ओक": 8850,
      "हडड": 8851,
      "नरकषण": 8852,
      "icial": 8853,
      "१९९०": 8854,
      "लफटनट": 8855,
      "bs": 8856,
      "ऑडय": 8857,
      "बकन": 8858,
      "परडकशन": 8859,
      "अगरवल": 8860,
      "1857": 8861,
      "कमयब": 8862,
      "उपरयकत": 8863,
      "अजमर": 8864,
      "110": 8865,
      "बनवट": 8866,
      "रखव": 8867,
      "३१": 8868,
      "ori": 8869,
      "instit": 8870,
      "नवद": 8871,
      "दवज": 8872,
      "information": 8873,
      "ननथ": 8874,
      "परथमकत": 8875,
      "iver": 8876,
      "उपरत": 8877,
      "यसफ": 8878,
      "टनमट": 8879,
      "नषठ": 8880,
      "बसर": 8881,
      "जलपरपत": 8882,
      "रनखत": 8883,
      "शखए": 8884,
      "जलल": 8885,
      "दसव": 8886,
      "परवतय": 8887,
      "1941": 8888,
      "टवन": 8889,
      "मनवधकर": 8890,
      "पडएफ": 8891,
      "sho": 8892,
      "नरवह": 8893,
      "uss": 8894,
      "झरन": 8895,
      "जनसन": 8896,
      "मतसय": 8897,
      "दलप": 8898,
      "सगरहत": 8899,
      "बइबल": 8900,
      "भजत": 8901,
      "वतर": 8902,
      "परमक": 8903,
      "वरच": 8904,
      "भरन": 8905,
      "cre": 8906,
      "ओमन": 8907,
      "1937": 8908,
      "शतन": 8909,
      "अपनन": 8910,
      "सटफ": 8911,
      "महनगर": 8912,
      "ety": 8913,
      "परकषपण": 8914,
      "उपसन": 8915,
      "open": 8916,
      "उपयगत": 8917,
      "दलचसप": 8918,
      "पदप": 8919,
      "clo": 8920,
      "झस": 8921,
      "सरट": 8922,
      "पलयर": 8923,
      "खदर": 8924,
      "मनम": 8925,
      "ond": 8926,
      "अहर": 8927,
      "मलह": 8928,
      "सवचलत": 8929,
      "बसल": 8930,
      "१८५": 8931,
      "इलकटरनकस": 8932,
      "पहनन": 8933,
      "मनष": 8934,
      "सदधरथ": 8935,
      "मगलय": 8936,
      "कथए": 8937,
      "सतक": 8938,
      "mus": 8939,
      "धरमन": 8940,
      "सहसर": 8941,
      "सदरत": 8942,
      "कगर": 8943,
      "पजन": 8944,
      "बसकट": 8945,
      "चलस": 8946,
      "उसमन": 8947,
      "दफ": 8948,
      "भवषयवण": 8949,
      "चचय": 8950,
      "मरगदरशन": 8951,
      "नतज": 8952,
      "पथवरज": 8953,
      "first": 8954,
      "79": 8955,
      "जमल": 8956,
      "रषटरमडल": 8957,
      "ps": 8958,
      "दमक": 8959,
      "उपहर": 8960,
      "उदधत": 8961,
      "पउड": 8962,
      "अनदन": 8963,
      "चतरकल": 8964,
      "गमबर": 8965,
      "wa": 8966,
      "कटटर": 8967,
      "कचन": 8968,
      "ale": 8969,
      "आट": 8970,
      "सहय": 8971,
      "भमधय": 8972,
      "ara": 8973,
      "1932": 8974,
      "जयन": 8975,
      "१८८": 8976,
      "औसतन": 8977,
      "टबल": 8978,
      "बगर": 8979,
      "py": 8980,
      "रजक": 8981,
      "रमश": 8982,
      "बलकन": 8983,
      "पछत": 8984,
      "परभग": 8985,
      "जगननथ": 8986,
      "आपरधक": 8987,
      "cture": 8988,
      "पसदद": 8989,
      "थलसण": 8990,
      "उनन": 8991,
      "1919": 8992,
      "बधक": 8993,
      "pres": 8994,
      "कठनई": 8995,
      "सवटजरलड": 8996,
      "जनवल": 8997,
      "दववद": 8998,
      "पदमशर": 8999,
      "ane": 9000,
      "ममस": 9001,
      "1900": 9002,
      "this": 9003,
      "अनयथ": 9004,
      "२००२": 9005,
      "टलफन": 9006,
      "सपरम": 9007,
      "सन‌": 9008,
      "अटलटक": 9009,
      "रडड": 9010,
      "चडगढ": 9011,
      "थयटर": 9012,
      "उषणकटबधय": 9013,
      "आवगमन": 9014,
      "कषठ": 9015,
      "अजब": 9016,
      "class": 9017,
      "शरनगर": 9018,
      "महसचव": 9019,
      "नगरपलक": 9020,
      "ugh": 9021,
      "pat": 9022,
      "जगरकत": 9023,
      "मतरय": 9024,
      "महनत": 9025,
      "आशर": 9026,
      "‍न": 9027,
      "फरद": 9028,
      "धनष": 9029,
      "cript": 9030,
      "एसटर": 9031,
      "कचर": 9032,
      "परमपरक": 9033,
      "who": 9034,
      "एरक": 9035,
      "जरडन": 9036,
      "वशवसनय": 9037,
      "कवतए": 9038,
      "fer": 9039,
      "मरकस": 9040,
      "वयसत": 9041,
      "एफस": 9042,
      "तलनतमक": 9043,
      "मयम": 9044,
      "मशनर": 9045,
      "धप": 9046,
      "'।": 9047,
      "कजल": 9048,
      "नरमल": 9049,
      "महदर": 9050,
      "भतपरव": 9051,
      "1931": 9052,
      "day": 9053,
      "अपत": 9054,
      "पचन": 9055,
      "वलयन": 9056,
      "डलट": 9057,
      "समपरक": 9058,
      "सरहन": 9059,
      "नरतक": 9060,
      "हलवड": 9061,
      "करपट": 9062,
      "वहत": 9063,
      "रजयसभ": 9064,
      "९०": 9065,
      "वलन": 9066,
      "टककर": 9067,
      "आशरय": 9068,
      "शररम": 9069,
      "ससज": 9070,
      "articles": 9071,
      "परकस": 9072,
      "परभर": 9073,
      "मरर": 9074,
      "16व": 9075,
      "आड": 9076,
      "1922": 9077,
      "परतकल": 9078,
      "अलफ": 9079,
      "तरन": 9080,
      "वयखयन": 9081,
      "ali": 9082,
      "पदध": 9083,
      "lab": 9084,
      "कमशन": 9085,
      "मतभष": 9086,
      "जमट": 9087,
      "1944": 9088,
      "ववदसपद": 9089,
      "पम": 9090,
      "फटक": 9091,
      "मलम": 9092,
      "नतकत": 9093,
      "सकरमत": 9094,
      "spain": 9095,
      "english": 9096,
      "यटयब": 9097,
      "नरमद": 9098,
      "कशस": 9099,
      "अबदलल": 9100,
      "bra": 9101,
      "एलक": 9102,
      "इगत": 9103,
      "एकतरत": 9104,
      "परभतव": 9105,
      "over": 9106,
      "ency": 9107,
      "रयण": 9108,
      "bur": 9109,
      "san": 9110,
      "हलद": 9111,
      "आयरश": 9112,
      "चहनत": 9113,
      "सलय": 9114,
      "सडयम": 9115,
      "रकम": 9116,
      "शवल": 9117,
      "20व": 9118,
      "दखए": 9119,
      "सदधतक": 9120,
      "pi": 9121,
      "उम": 9122,
      "रवत": 9123,
      "दरत": 9124,
      "मनसन": 9125,
      "भषई": 9126,
      "नकबर": 9127,
      "1934": 9128,
      "अपश": 9129,
      "चस": 9130,
      "दरवड": 9131,
      "कलतमक": 9132,
      "rect": 9133,
      "मरकसवद": 9134,
      "सशकत": 9135,
      "बनर": 9136,
      "sim": 9137,
      "वलव": 9138,
      "आतमकथ": 9139,
      "खरदर": 9140,
      "कषतज": 9141,
      "लपट": 9142,
      "गलफ": 9143,
      "group": 9144,
      "टज": 9145,
      "ठहरय": 9146,
      "बसतर": 9147,
      "कशकए": 9148,
      "दकषणपरव": 9149,
      "भतज": 9150,
      "परकलपन": 9151,
      "आयकत": 9152,
      "समजशसतर": 9153,
      "पलश": 9154,
      "ature": 9155,
      "सटरज": 9156,
      "गइड": 9157,
      "ti": 9158,
      "आकलन": 9159,
      "चरज": 9160,
      "डए": 9161,
      "फलकस": 9162,
      "cat": 9163,
      "यजर": 9164,
      "inde": 9165,
      "esh": 9166,
      "दसई": 9167,
      "डरइवर": 9168,
      "सवदनशल": 9169,
      "ner": 9170,
      "ददन": 9171,
      "सदस": 9172,
      "बबत": 9173,
      "परवहत": 9174,
      "करमन": 9175,
      "वयसन": 9176,
      "उडर": 9177,
      "ake": 9178,
      "फलपन": 9179,
      "एसए": 9180,
      "1935": 9181,
      "अतयचर": 9182,
      "उपर": 9183,
      "सवग": 9184,
      "शतल": 9185,
      "1938": 9186,
      "पहनत": 9187,
      "शज": 9188,
      "करध": 9189,
      "औरत": 9190,
      "आचरण": 9191,
      "1924": 9192,
      "ors": 9193,
      "ऑरडर": 9194,
      "सतमभ": 9195,
      "बदधत": 9196,
      "टई": 9197,
      "अनपम": 9198,
      "हवड": 9199,
      "समचचय": 9200,
      "करयशल": 9201,
      "पटग": 9202,
      "अगठ": 9203,
      "ling": 9204,
      "ओन": 9205,
      "शपथ": 9206,
      "सइन": 9207,
      "फलश": 9208,
      "समयवद": 9209,
      "चब": 9210,
      "वफलत": 9211,
      "डजइनर": 9212,
      "चडई": 9213,
      "४५": 9214,
      "सयल": 9215,
      "हमय": 9216,
      "परबनध": 9217,
      "अलकर": 9218,
      "वभव": 9219,
      "कनद": 9220,
      "आरत": 9221,
      "खडन": 9222,
      "वययम": 9223,
      "नकटत": 9224,
      "इकर": 9225,
      "गनन": 9226,
      "लकक": 9227,
      "पतरकए": 9228,
      "pho": 9229,
      "por": 9230,
      "sing": 9231,
      "चव": 9232,
      "डएनए": 9233,
      "रपन": 9234,
      "मतत": 9235,
      "इलकटरक": 9236,
      "हनवल": 9237,
      "१९९८": 9238,
      "हरश": 9239,
      "शरट": 9240,
      "यगड": 9241,
      "ican": 9242,
      "वलयमस": 9243,
      "ally": 9244,
      "जबरल": 9245,
      "कलत": 9246,
      "1928": 9247,
      "आदत": 9248,
      "चयर": 9249,
      "सयन": 9250,
      "बदक": 9251,
      "हलड": 9252,
      "ste": 9253,
      "परसस": 9254,
      "रहकर": 9255,
      "let": 9256,
      "एसएस": 9257,
      "कतल": 9258,
      "बहसखयक": 9259,
      "high": 9260,
      "इकन": 9261,
      "रवज": 9262,
      "अनशसन": 9263,
      "टकसट": 9264,
      "सपतहक": 9265,
      "अनयई": 9266,
      "कहकर": 9267,
      "दशओ": 9268,
      "गगलहट": 9269,
      "फकटर": 9270,
      "समरथत": 9271,
      "धमरपन": 9272,
      "चफ": 9273,
      "पररक": 9274,
      "आरथर": 9275,
      "बहसपत": 9276,
      "वकलत": 9277,
      "कमपनय": 9278,
      "लकततरक": 9279,
      "उजगर": 9280,
      "सवरथ": 9281,
      "बजरग": 9282,
      "इसट": 9283,
      "अनपचरक": 9284,
      "मरव": 9285,
      "सटज": 9286,
      "डरगन": 9287,
      "gh": 9288,
      "करई": 9289,
      "उदधरण": 9290,
      "ved": 9291,
      "परदशय": 9292,
      "२०२०": 9293,
      "परधनमनतर": 9294,
      "पकक": 9295,
      "अलकजडर": 9296,
      "our": 9297,
      "पनल": 9298,
      "नरग": 9299,
      "बटस": 9300,
      "ural": 9301,
      "इणडय": 9302,
      "ium": 9303,
      "दहत": 9304,
      "तहई": 9305,
      "डरल": 9306,
      "शबदकश": 9307,
      "धवनय": 9308,
      "सपश": 9309,
      "समच": 9310,
      "सतप": 9311,
      "वलसन": 9312,
      "शरक": 9313,
      "लददख": 9314,
      "नपर": 9315,
      "सलसयस": 9316,
      "टलस": 9317,
      "मधयकलन": 9318,
      "रकरडस": 9319,
      "परयवरणय": 9320,
      "एजसय": 9321,
      ".),": 9322,
      "तखत": 9323,
      "हकट": 9324,
      "अरन": 9325,
      "आकरमक": 9326,
      "परपरओ": 9327,
      "मइन": 9328,
      "बनड": 9329,
      "ततपशचत": 9330,
      "रलस": 9331,
      "तमकत": 9332,
      "px": 9333,
      "ped": 9334,
      "पहलवन": 9335,
      "आईस": 9336,
      "review": 9337,
      "३६": 9338,
      "हदओ": 9339,
      "bm": 9340,
      "फम": 9341,
      "मशल": 9342,
      "तरपठ": 9343,
      "एमए": 9344,
      "अमतसर": 9345,
      "सरकट": 9346,
      "दमग": 9347,
      "दरपण": 9348,
      "महलल": 9349,
      "टरसफर": 9350,
      "पजकरण": 9351,
      "pan": 9352,
      "बलदन": 9353,
      "एनमशन": 9354,
      "hum": 9355,
      "कयब": 9356,
      "बदय": 9357,
      "चछक": 9358,
      "मछलय": 9359,
      "als": 9360,
      "तलस": 9361,
      "फसटवल": 9362,
      "पकट": 9363,
      "समककष": 9364,
      "जनपर": 9365,
      "official": 9366,
      "गयब": 9367,
      "फलमस": 9368,
      "रमस": 9369,
      "बतए": 9370,
      "ककण": 9371,
      "रकथम": 9372,
      "भतत": 9373,
      "धरवय": 9374,
      "पनरनरमण": 9375,
      "ards": 9376,
      "तडन": 9377,
      "बलतकर": 9378,
      "सकलत": 9379,
      "अठ": 9380,
      "आभस": 9381,
      "पषक": 9382,
      "गरवर": 9383,
      "बरकरर": 9384,
      "1921": 9385,
      "अथर": 9386,
      "कध": 9387,
      "परवरतक": 9388,
      "यवओ": 9389,
      "ऑपरटग": 9390,
      "यनसक": 9391,
      "(,": 9392,
      "सडरम": 9393,
      "बरनग": 9394,
      "वशख": 9395,
      "पडग": 9396,
      "bel": 9397,
      "शकरचरय": 9398,
      "hn": 9399,
      "शवलग": 9400,
      "cd": 9401,
      "वसक": 9402,
      "मसपशय": 9403,
      "भमगत": 9404,
      "मरवड": 9405,
      "than": 9406,
      "सचकक": 9407,
      "दरदरशन": 9408,
      "कलसक": 9409,
      "जयमत": 9410,
      "रयलट": 9411,
      "परतयगतओ": 9412,
      "mas": 9413,
      "०३": 9414,
      "ings": 9415,
      "field": 9416,
      "ric": 9417,
      "नकलकर": 9418,
      "बरहमड": 9419,
      "bro": 9420,
      "‘‘": 9421,
      "वयपरय": 9422,
      "नरसह": 9423,
      "phil": 9424,
      "cu": 9425,
      "अभषक": 9426,
      "चबट": 9427,
      "ऑसटरय": 9428,
      "शरल": 9429,
      "डमकरटक": 9430,
      "सअर": 9431,
      "सलफ": 9432,
      "आरकषत": 9433,
      "अवकश": 9434,
      "ame": 9435,
      "सबन": 9436,
      "कनल": 9437,
      "इनपट": 9438,
      "मरकर": 9439,
      "फलसतन": 9440,
      "सवयसवक": 9441,
      "उतपदत": 9442,
      "रचयत": 9443,
      "अमतभ": 9444,
      "सभग": 9445,
      "डयक": 9446,
      "उददन": 9447,
      "जवशम": 9448,
      "वषप": 9449,
      "’’": 9450,
      "परपक": 9451,
      "wil": 9452,
      "1918": 9453,
      "परववरत": 9454,
      "elop": 9455,
      "time": 9456,
      "1929": 9457,
      "परहत": 9458,
      "अनभग": 9459,
      "परसपरक": 9460,
      "पलकशन": 9461,
      "ढर": 9462,
      "नरदर": 9463,
      "lit": 9464,
      "भसकर": 9465,
      "1925": 9466,
      "मककबज": 9467,
      "सतनधर": 9468,
      "उपनगर": 9469,
      "phys": 9470,
      "गवरनमट": 9471,
      "मरदबद": 9472,
      "ककल": 9473,
      "सवतनतर": 9474,
      "incl": 9475,
      "७५": 9476,
      "जबरलटर": 9477,
      "हफ": 9478,
      "मसद": 9479,
      "पकचरस": 9480,
      "speci": 9481,
      ")\"": 9482,
      "ise": 9483,
      "नषक": 9484,
      "वछत": 9485,
      "लगई": 9486,
      "नरवद": 9487,
      "पलटन": 9488,
      "अधयपक": 9489,
      "रववर": 9490,
      "नकद": 9491,
      "षकर": 9492,
      "करवन": 9493,
      "अलबरट": 9494,
      "भरमण": 9495,
      "बगच": 9496,
      "एटरटनमट": 9497,
      "ization": 9498,
      "कजर": 9499,
      "सथरत": 9500,
      "also": 9501,
      "बहतरन": 9502,
      "शरवसतव": 9503,
      "डनमरक": 9504,
      "हब": 9505,
      "परख": 9506,
      "हयर": 9507,
      "फरमस": 9508,
      "ures": 9509,
      "ava": 9510,
      "tt": 9511,
      "raj": 9512,
      "परखयत": 9513,
      "वरजन": 9514,
      "सकटर": 9515,
      "सलल": 9516,
      "आणवक": 9517,
      "1926": 9518,
      "एवम": 9519,
      "इजरयल": 9520,
      "फरचइज": 9521,
      "dd": 9522,
      "tit": 9523,
      "रमक": 9524,
      "बनरज": 9525,
      "सकरपट": 9526,
      "1933": 9527,
      "lam": 9528,
      "झलल": 9529,
      "अवसद": 9530,
      "1943": 9531,
      "टइगर": 9532,
      "उजजन": 9533,
      "वहल": 9534,
      "५००": 9535,
      "१९८०": 9536,
      "चढई": 9537,
      "las": 9538,
      "फलटर": 9539,
      "कसटर": 9540,
      "गवट": 9541,
      "down": 9542,
      "आखरकर": 9543,
      "उजर": 9544,
      "फग": 9545,
      "मरममत": 9546,
      "अनकरण": 9547,
      "सवई": 9548,
      "ada": 9549,
      "परगतशल": 9550,
      "गरभशय": 9551,
      "चबटखल": 9552,
      "700": 9553,
      "डबय": 9554,
      "वललभ": 9555,
      "फरश": 9556,
      "anal": 9557,
      "मडसन": 9558,
      "एयरपरट": 9559,
      "wikt": 9560,
      "वरद": 9561,
      "वरल": 9562,
      "समबदध": 9563,
      "सगनल": 9564,
      "science": 9565,
      "हनकरक": 9566,
      "कमबरज": 9567,
      "va": 9568,
      "पणय": 9569,
      "टब": 9570,
      "सकरण": 9571,
      "सतषट": 9572,
      "१९९९": 9573,
      "ific": 9574,
      "जबरदसत": 9575,
      "vers": 9576,
      "पमट": 9577,
      "कलचर": 9578,
      "उपनयसकर": 9579,
      "लटल": 9580,
      "३४": 9581,
      "any": 9582,
      "ont": 9583,
      "पगबर": 9584,
      "गगन": 9585,
      "तइवन": 9586,
      "gar": 9587,
      "वचक": 9588,
      "मनचसटर": 9589,
      "उततररध": 9590,
      "ze": 9591,
      "एकदश": 9592,
      "develop": 9593,
      "।[": 9594,
      "मरम": 9595,
      "सटटस": 9596,
      "लखसरय": 9597,
      "grap": 9598,
      "दगन": 9599,
      "परलय": 9600,
      "मनकर": 9601,
      "कलरस": 9602,
      "action": 9603,
      "सलवर": 9604,
      "परतयय": 9605,
      "उष": 9606,
      "सरक": 9607,
      "पढत": 9608,
      "चकरवत": 9609,
      "कवरज": 9610,
      "अदज": 9611,
      "rese": 9612,
      "effect": 9613,
      "छपन": 9614,
      "रइट": 9615,
      "दरजन": 9616,
      "एमएल": 9617,
      "दपहर": 9618,
      "news": 9619,
      "अभकरय": 9620,
      "चककर": 9621,
      "institute": 9622,
      "has": 9623,
      "दरसचर": 9624,
      "फलरड": 9625,
      "दखरख": 9626,
      "कशलत": 9627,
      "एसई": 9628,
      "गजरन": 9629,
      "research": 9630,
      "कनह": 9631,
      "आईव": 9632,
      "फरससक": 9633,
      "तरकक": 9634,
      "जगदश": 9635,
      "कचछ": 9636,
      "लरन": 9637,
      "वरगय": 9638,
      "सरम": 9639,
      "वलल": 9640,
      "चढन": 9641,
      "ऊट": 9642,
      "कतक": 9643,
      "बनस": 9644,
      "नरनदर": 9645,
      "उतरन": 9646,
      "शड": 9647,
      "bit": 9648,
      "रजदर": 9649,
      "che": 9650,
      "वकसशल": 9651,
      "नभकय": 9652,
      "अशव": 9653,
      "परतसथपत": 9654,
      "सईओ": 9655,
      "कलरइड": 9656,
      "cir": 9657,
      "about": 9658,
      "उननसव": 9659,
      "तद": 9660,
      "1923": 9661,
      "यनस": 9662,
      "जडकर": 9663,
      "अपयर": 9664,
      "पचस": 9665,
      "परतनधय": 9666,
      "इगलणड": 9667,
      "bol": 9668,
      "tem": 9669,
      "अखड": 9670,
      "ऑटम": 9671,
      "परप": 9672,
      "गरजर": 9673,
      "tra": 9674,
      "आशरवद": 9675,
      "1914": 9676,
      "वयतपतत": 9677,
      "परततवक": 9678,
      "translations": 9679,
      "je": 9680,
      "यध": 9681,
      "लगग": 9682,
      "नरसहर": 9683,
      "ससथए": 9684,
      "समपतत": 9685,
      "सरचनओ": 9686,
      "आलम": 9687,
      "०२": 9688,
      "परतकत": 9689,
      "ama": 9690,
      "अकर": 9691,
      "अजम": 9692,
      "आव": 9693,
      "पकन": 9694,
      "रजसटर": 9695,
      "हलदवन": 9696,
      "दनश": 9697,
      "उत‍": 9698,
      "map": 9699,
      "भयकर": 9700,
      "law": 9701,
      "dom": 9702,
      "fish": 9703,
      "सपड": 9704,
      "टरम": 9705,
      "परवकत": 9706,
      "मलहतर": 9707,
      "खई": 9708,
      "खपत": 9709,
      "परब": 9710,
      "हरदवर": 9711,
      "diff": 9712,
      "फइबर": 9713,
      "vid": 9714,
      "1912": 9715,
      "तरकण": 9716,
      "बसकटबल": 9717,
      "pet": 9718,
      "सयर": 9719,
      "डरवन": 9720,
      "जएल": 9721,
      "परसथन": 9722,
      "करवस": 9723,
      "गरदन": 9724,
      "सरवततम": 9725,
      "हकटयर": 9726,
      "एरन": 9727,
      "मनजमट": 9728,
      "वशवनथ": 9729,
      "बसतय": 9730,
      "नरणयक": 9731,
      "आईएसब": 9732,
      "आशय": 9733,
      "कहर": 9734,
      "‍ट": 9735,
      "एकट": 9736,
      "1911": 9737,
      "रनलड": 9738,
      "ron": 9739,
      "लकल": 9740,
      "मरगन": 9741,
      "उदगम": 9742,
      "fun": 9743,
      "बसक": 9744,
      "goog": 9745,
      "'''": 9746,
      "जवहरलल": 9747,
      "शनर": 9748,
      "मलभत": 9749,
      "मरड": 9750,
      "roman": 9751,
      "इटरफस": 9752,
      "असतर": 9753,
      "आवरण": 9754,
      "समए": 9755,
      "भमकए": 9756,
      "sco": 9757,
      "घटल": 9758,
      "ating": 9759,
      "engine": 9760,
      "४८": 9761,
      "दरण": 9762,
      "state": 9763,
      "direct": 9764,
      "psy": 9765,
      "एडन": 9766,
      "मतरमडल": 9767,
      "भरपर": 9768,
      "१६व": 9769,
      "एडरय": 9770,
      "डउनलड": 9771,
      "ography": 9772,
      "असपषट": 9773,
      "थप": 9774,
      "गरभव": 9775,
      "बटमन": 9776,
      "सगतबदध": 9777,
      "ओड": 9778,
      "परमशवर": 9779,
      "पनरग": 9780,
      "अनठ": 9781,
      "रयपर": 9782,
      "ulation": 9783,
      "produ": 9784,
      "math": 9785,
      "बरद": 9786,
      "कलदस": 9787,
      "नयमन": 9788,
      "अनजन": 9789,
      "लडत": 9790,
      "जबलपर": 9791,
      "hel": 9792,
      "तरट": 9793,
      "सतपल": 9794,
      "कमरन": 9795,
      "ange": 9796,
      "हरटज": 9797,
      "पकतय": 9798,
      "लडर": 9799,
      "वरथ": 9800,
      "मनदड": 9801,
      "लटत": 9802,
      "pers": 9803,
      "औजर": 9804,
      "फसबक": 9805,
      "परथओ": 9806,
      "रधव": 9807,
      "अनययय": 9808,
      "दपत": 9809,
      "रवर": 9810,
      "परदत": 9811,
      "वनन": 9812,
      "बलडग": 9813,
      "फरमल": 9814,
      "भरस": 9815,
      "परचरक": 9816,
      "vel": 9817,
      "तजक": 9818,
      "वलड": 9819,
      "भरश": 9820,
      "बरदरस": 9821,
      "छनद": 9822,
      "नतन": 9823,
      "महशवर": 9824,
      "खरक": 9825,
      "more": 9826,
      "ox": 9827,
      "सओ": 9828,
      "सखयओ": 9829,
      "dv": 9830,
      "वचत": 9831,
      "south": 9832,
      "‍म": 9833,
      "अनम": 9834,
      "google": 9835,
      "सरलत": 9836,
      "ional": 9837,
      "पचय": 9838,
      "try": 9839,
      "phy": 9840,
      "अपशषट": 9841,
      "शटट": 9842,
      "दरगह": 9843,
      "कशव": 9844,
      "झगड": 9845,
      "लईस": 9846,
      "वयतत": 9847,
      "रखरखव": 9848,
      "भवनतमक": 9849,
      "techn": 9850,
      "१८६": 9851,
      "वरदन": 9852,
      "जसपर": 9853,
      "कषणन": 9854,
      "षटरय": 9855,
      "mem": 9856,
      "1927": 9857,
      "बजए": 9858,
      "जहगर": 9859,
      "article": 9860,
      "hal": 9861,
      "ji": 9862,
      "डनस": 9863,
      "mac": 9864,
      "गबर": 9865,
      "डनयल": 9866,
      "तदन": 9867,
      "बसय": 9868,
      "रजनदर": 9869,
      "पदधतय": 9870,
      "pp": 9871,
      "mit": 9872,
      "एलय": 9873,
      "यवक": 9874,
      "पनरज": 9875,
      "वघटन": 9876,
      "bre": 9877,
      "ऑसटन": 9878,
      "सरद": 9879,
      "सलवनय": 9880,
      "भडरण": 9881,
      "दलय": 9882,
      "मनसटर": 9883,
      "टरबइन": 9884,
      "1910": 9885,
      "नरन": 9886,
      "theory": 9887,
      "publish": 9888,
      "यथरथवद": 9889,
      "रयन": 9890,
      "ford": 9891,
      "process": 9892,
      "डजल": 9893,
      "१०००": 9894,
      "करसमस": 9895,
      "1917": 9896,
      "अनभत": 9897,
      "sour": 9898,
      "power": 9899,
      "kr": 9900,
      "जगन": 9901,
      "सजश": 9902,
      "सशलषण": 9903,
      "ईयर": 9904,
      "समफइनल": 9905,
      "नयजन": 9906,
      "ates": 9907,
      "गरभवसथ": 9908,
      "परशर": 9909,
      "गयर": 9910,
      "जलघर": 9911,
      "black": 9912,
      "वशरम": 9913,
      "चमतकर": 9914,
      "omet": 9915,
      "सवच": 9916,
      "पशव": 9917,
      "?\"": 9918,
      "sin": 9919,
      "नयटन": 9920,
      "उपकरम": 9921,
      "मददन": 9922,
      "हठ": 9923,
      "अनवषण": 9924,
      "अनवदक": 9925,
      "नवनतम": 9926,
      "खगलशसतर": 9927,
      "आफ": 9928,
      "उपरकत": 9929,
      "कपय": 9930,
      "ठठ": 9931,
      "शगर": 9932,
      "३३": 9933,
      "मनयम": 9934,
      "rol": 9935,
      "उभरत": 9936,
      "उजबक": 9937,
      "थयर": 9938,
      "मसस": 9939,
      "रशद": 9940,
      "वयपत": 9941,
      "बलर": 9942,
      "हससदर": 9943,
      "ढई": 9944,
      "life": 9945,
      "यतन": 9946,
      "windo": 9947,
      "pop": 9948,
      "खफय": 9949,
      "छवय": 9950,
      "पदननत": 9951,
      "gn": 9952,
      "जजर": 9953,
      "यहदय": 9954,
      "हनदओ": 9955,
      "गरभवत": 9956,
      "उरज": 9957,
      "फजल": 9958,
      "मरवल": 9959,
      "परतपदन": 9960,
      "समगरय": 9961,
      "हइडरकरबन": 9962,
      "बहम": 9963,
      "शवस": 9964,
      "इसपर": 9965,
      "अनख": 9966,
      "धरन": 9967,
      "mark": 9968,
      "गबद": 9969,
      "पगमबर": 9970,
      "सवस": 9971,
      "करयतमक": 9972,
      "परटय": 9973,
      "मधमह": 9974,
      "परतषठन": 9975,
      "यवन": 9976,
      "मलदव": 9977,
      "वदयरथय": 9978,
      "रपरख": 9979,
      "वरणमल": 9980,
      "ley": 9981,
      "मनयतओ": 9982,
      "dh": 9983,
      "ईमनदर": 9984,
      "उतपडन": 9985,
      "जयषठ": 9986,
      "135": 9987,
      "अबल": 9988,
      "गतक": 9989,
      "परससर": 9990,
      "आईड": 9991,
      "नषपदन": 9992,
      "चयनत": 9993,
      "खमर": 9994,
      "करप": 9995,
      "chem": 9996,
      "नइटरजन": 9997,
      "लचल": 9998,
      "डरग": 9999,
      "मसटरस": 10000,
      "समवर": 10001,
      "हरर": 10002,
      "वयमडल": 10003,
      "दवरक": 10004,
      "वषयक": 10005,
      "ced": 10006,
      "sar": 10007,
      "टगर": 10008,
      "हडल": 10009,
      "।'": 10010,
      "सटलन": 10011,
      "उपभग": 10012,
      "नषध": 10013,
      "पशचतय": 10014,
      "सकरत": 10015,
      "परधय": 10016,
      "सदगध": 10017,
      "18व": 10018,
      "guide": 10019,
      "जयर": 10020,
      "बएम": 10021,
      "now": 10022,
      "मजरम": 10023,
      "बसटन": 10024,
      "वरयत": 10025,
      "euro": 10026,
      "ral": 10027,
      "इलय": 10028,
      "वनम": 10029,
      "पलकस": 10030,
      "कओ": 10031,
      "मतक": 10032,
      "सजत": 10033,
      "सनहर": 10034,
      "रष‍": 10035,
      "ord": 10036,
      "अरजटन": 10037,
      "कवक": 10038,
      "पबल": 10039,
      "कथरन": 10040,
      "सजवट": 10041,
      "cle": 10042,
      "एथन": 10043,
      "डपरटमट": 10044,
      "गरफक": 10045,
      "सबज": 10046,
      "बडमटन": 10047,
      "उललखत": 10048,
      "सकटश": 10049,
      "एहसस": 10050,
      "पषत": 10051,
      "एकजट": 10052,
      "टरनट": 10053,
      "ठकन": 10054,
      "सतश": 10055,
      "वशषजञत": 10056,
      "पथर": 10057,
      "ईसपरव": 10058,
      "play": 10059,
      "जशन": 10060,
      "फश": 10061,
      "३७": 10062,
      "fre": 10063,
      "वरनर": 10064,
      "1916": 10065,
      "अशवन": 10066,
      "स‍थ": 10067,
      "परइवट": 10068,
      "शनवर": 10069,
      "आगतक": 10070,
      "फडरशन": 10071,
      "अणडमन": 10072,
      "‍ल": 10073,
      "भरदवज": 10074,
      "चनदरम": 10075,
      "आजवन": 10076,
      "ऑपट": 10077,
      "पधयय": 10078,
      "रपतर": 10079,
      "खलनयक": 10080,
      "पहय": 10081,
      "15व": 10082,
      "रनव": 10083,
      "करयकरतओ": 10084,
      "गतवय": 10085,
      "डलफ": 10086,
      "अजल": 10087,
      "सपरसदध": 10088,
      "परखड": 10089,
      "अनचत": 10090,
      "सलभ": 10091,
      "रहम": 10092,
      "परमपरगत": 10093,
      "परतपगढ": 10094,
      "टकसस": 10095,
      "नपलयन": 10096,
      "थरलर": 10097,
      "sal": 10098,
      "मसन": 10099,
      "ससट": 10100,
      "३२": 10101,
      "समबध": 10102,
      "दयत": 10103,
      "इव": 10104,
      "रवय": 10105,
      "शकस": 10106,
      "मलई": 10107,
      "मसह": 10108,
      "syn": 10109,
      "हगन": 10110,
      "ere": 10111,
      "नगरकत": 10112,
      "सरचनतमक": 10113,
      "ru": 10114,
      "एआई": 10115,
      "रमनगर": 10116,
      "1908": 10117,
      "‍स": 10118,
      "कषप": 10119,
      "सबजय": 10120,
      "आईएसबएन": 10121,
      "बपत": 10122,
      "ities": 10123,
      "program": 10124,
      "tain": 10125,
      "windows": 10126,
      "munic": 10127,
      "गसस": 10128,
      "समलगक": 10129,
      "पनम": 10130,
      "अमरल": 10131,
      "जववजञनक": 10132,
      "सथगत": 10133,
      "mu": 10134,
      "pap": 10135,
      "सपकटरम": 10136,
      "मकट": 10137,
      "परससकरण": 10138,
      "हतयर": 10139,
      "lim": 10140,
      "right": 10141,
      "year": 10142,
      "शलग": 10143,
      "अनसन": 10144,
      "फलमगरफ": 10145,
      "रणज": 10146,
      "आउटपट": 10147,
      "आचर": 10148,
      "८३": 10149,
      "बरउजर": 10150,
      "सयज": 10151,
      "united": 10152,
      "रहसयमय": 10153,
      "जलधर": 10154,
      "उपधयय": 10155,
      "पकचर": 10156,
      "aya": 10157,
      "बलचसतन": 10158,
      "ki": 10159,
      "कगस": 10160,
      "वकरय": 10161,
      "सचरण": 10162,
      "नमबय": 10163,
      "सभलन": 10164,
      "१८७": 10165,
      "organ": 10166,
      "आधनकत": 10167,
      "900": 10168,
      "अदय": 10169,
      "रसग": 10170,
      "गरकल": 10171,
      "अपकषत": 10172,
      "vent": 10173,
      "बरमन": 10174,
      "हपप": 10175,
      "सनयर": 10176,
      "बडल": 10177,
      "१९९२": 10178,
      "पणडत": 10179,
      "समपदक": 10180,
      "दशहर": 10181,
      "चततड": 10182,
      "ble": 10183,
      "असभव": 10184,
      "आघत": 10185,
      "ङग": 10186,
      "चरचत": 10187,
      "दलहन": 10188,
      "मडलग": 10189,
      "कषमतओ": 10190,
      "psych": 10191,
      "ning": 10192,
      "tre": 10193,
      "शलन": 10194,
      "अबबस": 10195,
      "emat": 10196,
      "१९७०": 10197,
      "तरथकर": 10198,
      "lar": 10199,
      "घण": 10200,
      "चपक": 10201,
      "फकर": 10202,
      "usa": 10203,
      "load": 10204,
      "ipal": 10205,
      "mor": 10206,
      "some": 10207,
      "ten": 10208,
      "114": 10209,
      "मइक": 10210,
      "रमण": 10211,
      "कलफ": 10212,
      "सलसल": 10213,
      "लभकर": 10214,
      "american": 10215,
      "अभग": 10216,
      "मरथ": 10217,
      "१९९१": 10218,
      "dig": 10219,
      "वलग": 10220,
      "एकक": 10221,
      "रपबलक": 10222,
      "गतशल": 10223,
      "ences": 10224,
      "130": 10225,
      "हरडवयर": 10226,
      "वनरमण": 10227,
      "सबरग": 10228,
      "agar": 10229,
      "सपरग": 10230,
      "रशतदर": 10231,
      "page": 10232,
      "परसव": 10233,
      "सहयगय": 10234,
      "आएग": 10235,
      "ek": 10236,
      "river": 10237,
      "वसन": 10238,
      "गरफर": 10239,
      "ino": 10240,
      "परयजत": 10241,
      "गरसण": 10242,
      "ec": 10243,
      "चइन": 10244,
      "सलग": 10245,
      "एकडम": 10246,
      "लयर": 10247,
      "associ": 10248,
      "पजवद": 10249,
      "कफर": 10250,
      "ढलन": 10251,
      "लरस": 10252,
      "वलफ": 10253,
      "मटरक": 10254,
      "परषकत": 10255,
      "ool": 10256,
      "wal": 10257,
      "मचन": 10258,
      "read": 10259,
      "१९९६": 10260,
      "शकन": 10261,
      "करलन": 10262,
      "मरमर": 10263,
      "शधकरतओ": 10264,
      "ककन": 10265,
      "गरदवर": 10266,
      "हटकर": 10267,
      "घडसवर": 10268,
      "एमस": 10269,
      "व‍": 10270,
      "हमद": 10271,
      "रमकषण": 10272,
      "बठत": 10273,
      "कइल": 10274,
      "सकई": 10275,
      "गलकर": 10276,
      "मकश": 10277,
      "आयतन": 10278,
      "मटरकस": 10279,
      "oper": 10280,
      "करयनवत": 10281,
      "वललर": 10282,
      "अरदध": 10283,
      "अभनन": 10284,
      "१९४७": 10285,
      "mand": 10286,
      "ware": 10287,
      "सबल": 10288,
      "सवकरय": 10289,
      "जरन": 10290,
      "सदढ": 10291,
      "दरभगय": 10292,
      "वशवकश": 10293,
      "108": 10294,
      "1905": 10295,
      "नइजरय": 10296,
      "यचक": 10297,
      "सलडर": 10298,
      "कशयर": 10299,
      "बतई": 10300,
      "languages": 10301,
      "cas": 10302,
      "बबई": 10303,
      "सटइल": 10304,
      "करणपरयग": 10305,
      "ons": 10306,
      "bir": 10307,
      "city": 10308,
      "long": 10309,
      "सइबर": 10310,
      "गक": 10311,
      "कलओ": 10312,
      "जलशय": 10313,
      "most": 10314,
      "bet": 10315,
      "but": 10316,
      "वडर": 10317,
      "परजव": 10318,
      "डकटरट": 10319,
      "mil": 10320,
      "1915": 10321,
      "अनकलन": 10322,
      "stand": 10323,
      "नटककर": 10324,
      "बशप": 10325,
      "कननर": 10326,
      "फरडरक": 10327,
      "hindi": 10328,
      "नवरण": 10329,
      "भरतवरष": 10330,
      "stru": 10331,
      "gl": 10332,
      "झटक": 10333,
      "नरल": 10334,
      "आरक": 10335,
      "!!": 10336,
      "ततम": 10337,
      "आरकषण": 10338,
      "शरणरथ": 10339,
      "टटन": 10340,
      "सयत": 10341,
      "कवच": 10342,
      "गवहट": 10343,
      "आवर": 10344,
      "ओलड": 10345,
      "शघ": 10346,
      "८२": 10347,
      "शकरवर": 10348,
      "xx": 10349,
      "आवरत": 10350,
      "बइग": 10351,
      "समचत": 10352,
      "गतमक": 10353,
      "परतजञ": 10354,
      "रषटरमणडल": 10355,
      "ches": 10356,
      "books": 10357,
      "sat": 10358,
      "van": 10359,
      "गजन": 10360,
      "तरभज": 10361,
      "हरवरड": 10362,
      "परवण": 10363,
      "एचआईव": 10364,
      "writ": 10365,
      "यरपयन": 10366,
      "कटरल": 10367,
      "अठरह": 10368,
      "अवरध": 10369,
      "नरपण": 10370,
      "society": 10371,
      "tal": 10372,
      "एकर": 10373,
      "जरजय": 10374,
      "शच": 10375,
      "सकवयर": 10376,
      "नरक": 10377,
      "मदक": 10378,
      "पहचय": 10379,
      "pdf": 10380,
      "|}": 10381,
      "रबर": 10382,
      "libr": 10383,
      "bin": 10384,
      "वसदव": 10385,
      "एकसस": 10386,
      "दवरहट": 10387,
      "डवलपमट": 10388,
      "nat": 10389,
      "नभक": 10390,
      "हडय": 10391,
      "रजज": 10392,
      "bus": 10393,
      "tor": 10394,
      "वथ": 10395,
      "नरवण": 10396,
      "जगरण": 10397,
      "वकयश": 10398,
      "jan": 10399,
      "आहवन": 10400,
      "इतर": 10401,
      "इमज": 10402,
      "चपयस": 10403,
      "डवस": 10404,
      "डपलम": 10405,
      "वलद": 10406,
      "अरड": 10407,
      "वलटज": 10408,
      "td": 10409,
      "रसस": 10410,
      "परतसथपन": 10411,
      "बटलयन": 10412,
      "')": 10413,
      "hu": 10414,
      "फकन": 10415,
      "रई": 10416,
      "रकतचप": 10417,
      "१९६०": 10418,
      "सनदरय": 10419,
      "put": 10420,
      "वमरश": 10421,
      "टरपल": 10422,
      "उततरदय": 10423,
      "आमबडकर": 10424,
      "prof": 10425,
      "1901": 10426,
      "john": 10427,
      "सचचई": 10428,
      "han": 10429,
      "झग": 10430,
      "शवन": 10431,
      "परदयग": 10432,
      "दशभकत": 10433,
      "सलड": 10434,
      "नरपत": 10435,
      "कमभ": 10436,
      "gb": 10437,
      "ईश": 10438,
      "कडर": 10439,
      "सकतक": 10440,
      "रपक": 10441,
      "परयय": 10442,
      "सटरग": 10443,
      "रगब": 10444,
      "नवजत": 10445,
      "अधयपन": 10446,
      "gi": 10447,
      "इधर": 10448,
      "जनमत": 10449,
      "वहद": 10450,
      "मदरण": 10451,
      "सफय": 10452,
      "under": 10453,
      "सतयगरह": 10454,
      "=\"#": 10455,
      "mp": 10456,
      "तपत": 10457,
      "रठड": 10458,
      "८८": 10459,
      "वधक": 10460,
      "कठनइय": 10461,
      "परगर": 10462,
      "दरबन": 10463,
      "अननत": 10464,
      "जकसन": 10465,
      "ters": 10466,
      "टवनट": 10467,
      "डसटर": 10468,
      "अतएव": 10469,
      "हलकपटर": 10470,
      "archite": 10471,
      "पएचड": 10472,
      "समभवन": 10473,
      "top": 10474,
      "अभनतओ": 10475,
      "project": 10476,
      "fc": 10477,
      "hand": 10478,
      "may": 10479,
      "ny": 10480,
      "थरन": 10481,
      "जरण": 10482,
      "रहण": 10483,
      "आरमभक": 10484,
      "जसल": 10485,
      "‍द": 10486,
      "सनटर": 10487,
      "उतथन": 10488,
      "महमन": 10489,
      "alth": 10490,
      "जई": 10491,
      "९९": 10492,
      "कलतर": 10493,
      "इजशन": 10494,
      "cro": 10495,
      "ककड": 10496,
      "वधत": 10497,
      "दरपद": 10498,
      "यनत": 10499,
      "anth": 10500,
      "बरजभष": 10501,
      "brit": 10502,
      "आलचनतमक": 10503,
      "आभषण": 10504,
      "उ०": 10505,
      "तरज": 10506,
      "गलकस": 10507,
      "नकलस": 10508,
      "%,": 10509,
      "glo": 10510,
      "इप": 10511,
      "दरभग": 10512,
      "बरडन": 10513,
      "बनग": 10514,
      "कषतगरसत": 10515,
      "bert": 10516,
      "एपलकशन": 10517,
      "कवरटर": 10518,
      "महदवपय": 10519,
      "पलयन": 10520,
      "कतव": 10521,
      "code": 10522,
      "वशलषक": 10523,
      "function": 10524,
      "कमपय": 10525,
      "पलर": 10526,
      "छटट": 10527,
      "शकहर": 10528,
      "गरतवकरषण": 10529,
      "west": 10530,
      "दमदर": 10531,
      "ura": 10532,
      "cond": 10533,
      "ममरयल": 10534,
      "बपतसम": 10535,
      "एजल": 10536,
      "अलगव": 10537,
      "परबनधन": 10538,
      "तरई": 10539,
      "परचनतम": 10540,
      "नककश": 10541,
      "परसगक": 10542,
      "micros": 10543,
      "ding": 10544,
      "udi": 10545,
      "मओ": 10546,
      "रठ": 10547,
      "फरमन": 10548,
      "अरल": 10549,
      "खरन": 10550,
      "सरवभमक": 10551,
      "बलबरड": 10552,
      "अधयत": 10553,
      "लनकस": 10554,
      "लडग": 10555,
      "वषम": 10556,
      "box": 10557,
      "१९८९": 10558,
      "आउ": 10559,
      "ओडय": 10560,
      "दशम": 10561,
      "डयतर": 10562,
      "मततर": 10563,
      "मतरत": 10564,
      "मकमहन": 10565,
      "photo": 10566,
      "cell": 10567,
      "सनस": 10568,
      "अभनव": 10569,
      "island": 10570,
      "वसतकर": 10571,
      "शकषवद": 10572,
      "wood": 10573,
      "set": 10574,
      "शबदर": 10575,
      "कषदर": 10576,
      "डथ": 10577,
      "परसडस": 10578,
      "१९८४": 10579,
      "house": 10580,
      "distr": 10581,
      "परदयगकय": 10582,
      "mult": 10583,
      "चटरज": 10584,
      "मनजर": 10585,
      "सकरट": 10586,
      "अशवत": 10587,
      "school": 10588,
      "ईमन": 10589,
      "सपकर": 10590,
      "इकबल": 10591,
      "१९७१": 10592,
      "data": 10593,
      "हनन": 10594,
      "परतकष": 10595,
      "उपलबधत": 10596,
      "इलकटर": 10597,
      "शपग": 10598,
      "includ": 10599,
      "चशम": 10600,
      "६५": 10601,
      "पसटर": 10602,
      "आधरभत": 10603,
      "उपभकतओ": 10604,
      "ससजजत": 10605,
      "करद": 10606,
      "हरक": 10607,
      "लखड": 10608,
      "हडतल": 10609,
      "अकदमक": 10610,
      "ade": 10611,
      "शरदधजल": 10612,
      "अलकक": 10613,
      "अणओ": 10614,
      "refer": 10615,
      "सकयर": 10616,
      "अधवशन": 10617,
      "एनड": 10618,
      "एडरसन": 10619,
      "खव": 10620,
      "धग": 10621,
      "लफट": 10622,
      "सकच": 10623,
      "बचय": 10624,
      "जवनकल": 10625,
      "वततचतर": 10626,
      "शतबदय": 10627,
      "north": 10628,
      "rich": 10629,
      "ठहर": 10630,
      "अफसर": 10631,
      "परदप": 10632,
      "वजयनगर": 10633,
      "ful": 10634,
      "ire": 10635,
      "कआ": 10636,
      "खतन": 10637,
      "तई": 10638,
      "परजन": 10639,
      "हडडय": 10640,
      "cam": 10641,
      "jam": 10642,
      "धध": 10643,
      "रमनय": 10644,
      "षडयतर": 10645,
      "info": 10646,
      "लनन": 10647,
      "17व": 10648,
      "मलरय": 10649,
      "दवदर": 10650,
      "अलवर": 10651,
      "दलई": 10652,
      "एसआई": 10653,
      "वसफटक": 10654,
      "इश": 10655,
      "डकर": 10656,
      "तमन": 10657,
      "बआई": 10658,
      "यनतर": 10659,
      "महवतत": 10660,
      "used": 10661,
      "उठकर": 10662,
      "ven": 10663,
      "खदन": 10664,
      "1913": 10665,
      "पयज": 10666,
      "डवइस": 10667,
      "मलस": 10668,
      "डनलड": 10669,
      "चमब": 10670,
      "सउडटरक": 10671,
      "tar": 10672,
      "zo": 10673,
      "एकदम": 10674,
      "सवतर": 10675,
      "समयजत": 10676,
      "lex": 10677,
      "परतयश": 10678,
      "आपतकलन": 10679,
      "शरलकई": 10680,
      "कलयर": 10681,
      "सथनतरण": 10682,
      "educ": 10683,
      "cul": 10684,
      "sum": 10685,
      "चतय": 10686,
      "सरच": 10687,
      "भरतपर": 10688,
      "कनकट": 10689,
      "वजपय": 10690,
      "नतश": 10691,
      "अरचन": 10692,
      "रलमरग": 10693,
      "बधओ": 10694,
      "छतरपत": 10695,
      "nh": 10696,
      "आब": 10697,
      "कशयकटल": 10698,
      "econ": 10699,
      "miss": 10700,
      "ओट": 10701,
      "समपदन": 10702,
      "हलथ": 10703,
      "ora": 10704,
      "वशषठ": 10705,
      "धरमशसतर": 10706,
      "350": 10707,
      "आतर": 10708,
      "ईद": 10709,
      "मपर": 10710,
      "नयमक": 10711,
      "उततरण": 10712,
      "leg": 10713,
      "गहयदध": 10714,
      "ility": 10715,
      "अनकलत": 10716,
      "चटटगरम": 10717,
      "ईमल": 10718,
      "गधर": 10719,
      "वरह": 10720,
      "उनपर": 10721,
      "पलजम": 10722,
[...]
